{
  "version": "1.0",
  "truncation": null,
  "padding": null,
  "added_tokens": [
    {
      "id": 0,
      "content": "<|padding|>",
      "single_word": false,
      "lstrip": false,
      "rstrip": false,
      "normalized": false,
      "special": true
    },
    {
      "id": 1,
      "content": "<|begin_of_text|>",
      "single_word": false,
      "lstrip": false,
      "rstrip": false,
      "normalized": false,
      "special": true
    },
    {
      "id": 2,
      "content": "<|end_of_text|>",
      "single_word": false,
      "lstrip": false,
      "rstrip": false,
      "normalized": false,
      "special": true
    },
    {
      "id": 3,
      "content": "<|unknown|>",
      "single_word": false,
      "lstrip": false,
      "rstrip": false,
      "normalized": false,
      "special": true
    },
    {
      "id": 4,
      "content": "<|fim_prefix|>",
      "single_word": false,
      "lstrip": false,
      "rstrip": false,
      "normalized": false,
      "special": true
    },
    {
      "id": 5,
      "content": "<|fim_middle|>",
      "single_word": false,
      "lstrip": false,
      "rstrip": false,
      "normalized": false,
      "special": true
    },
    {
      "id": 6,
      "content": "<|fim_suffix|>",
      "single_word": false,
      "lstrip": false,
      "rstrip": false,
      "normalized": false,
      "special": true
    },
    {
      "id": 7,
      "content": "<|think|>",
      "single_word": false,
      "lstrip": false,
      "rstrip": false,
      "normalized": false,
      "special": true
    },
    {
      "id": 8,
      "content": "<|/think|>",
      "single_word": false,
      "lstrip": false,
      "rstrip": false,
      "normalized": false,
      "special": true
    },
    {
      "id": 9,
      "content": "<|answer|>",
      "single_word": false,
      "lstrip": false,
      "rstrip": false,
      "normalized": false,
      "special": true
    },
    {
      "id": 10,
      "content": "<|/answer|>",
      "single_word": false,
      "lstrip": false,
      "rstrip": false,
      "normalized": false,
      "special": true
    },
    {
      "id": 11,
      "content": "<|user|>",
      "single_word": false,
      "lstrip": false,
      "rstrip": false,
      "normalized": false,
      "special": true
    },
    {
      "id": 12,
      "content": "<|assistant|>",
      "single_word": false,
      "lstrip": false,
      "rstrip": false,
      "normalized": false,
      "special": true
    },
    {
      "id": 13,
      "content": "<|system|>",
      "single_word": false,
      "lstrip": false,
      "rstrip": false,
      "normalized": false,
      "special": true
    },
    {
      "id": 14,
      "content": "<|end_turn|>",
      "single_word": false,
      "lstrip": false,
      "rstrip": false,
      "normalized": false,
      "special": true
    },
    {
      "id": 15,
      "content": "<|tool_call|>",
      "single_word": false,
      "lstrip": false,
      "rstrip": false,
      "normalized": false,
      "special": true
    },
    {
      "id": 16,
      "content": "<|/tool_call|>",
      "single_word": false,
      "lstrip": false,
      "rstrip": false,
      "normalized": false,
      "special": true
    },
    {
      "id": 17,
      "content": "<|tool_result|>",
      "single_word": false,
      "lstrip": false,
      "rstrip": false,
      "normalized": false,
      "special": true
    },
    {
      "id": 18,
      "content": "<|/tool_result|>",
      "single_word": false,
      "lstrip": false,
      "rstrip": false,
      "normalized": false,
      "special": true
    },
    {
      "id": 19,
      "content": "<|image|>",
      "single_word": false,
      "lstrip": false,
      "rstrip": false,
      "normalized": false,
      "special": true
    },
    {
      "id": 20,
      "content": "<|audio|>",
      "single_word": false,
      "lstrip": false,
      "rstrip": false,
      "normalized": false,
      "special": true
    },
    {
      "id": 21,
      "content": "<|reserved_21|>",
      "single_word": false,
      "lstrip": false,
      "rstrip": false,
      "normalized": false,
      "special": true
    },
    {
      "id": 22,
      "content": "<|reserved_22|>",
      "single_word": false,
      "lstrip": false,
      "rstrip": false,
      "normalized": false,
      "special": true
    },
    {
      "id": 23,
      "content": "<|reserved_23|>",
      "single_word": false,
      "lstrip": false,
      "rstrip": false,
      "normalized": false,
      "special": true
    },
    {
      "id": 24,
      "content": "<|reserved_24|>",
      "single_word": false,
      "lstrip": false,
      "rstrip": false,
      "normalized": false,
      "special": true
    },
    {
      "id": 25,
      "content": "<|reserved_25|>",
      "single_word": false,
      "lstrip": false,
      "rstrip": false,
      "normalized": false,
      "special": true
    },
    {
      "id": 26,
      "content": "<|reserved_26|>",
      "single_word": false,
      "lstrip": false,
      "rstrip": false,
      "normalized": false,
      "special": true
    },
    {
      "id": 27,
      "content": "<|reserved_27|>",
      "single_word": false,
      "lstrip": false,
      "rstrip": false,
      "normalized": false,
      "special": true
    },
    {
      "id": 28,
      "content": "<|reserved_28|>",
      "single_word": false,
      "lstrip": false,
      "rstrip": false,
      "normalized": false,
      "special": true
    },
    {
      "id": 29,
      "content": "<|reserved_29|>",
      "single_word": false,
      "lstrip": false,
      "rstrip": false,
      "normalized": false,
      "special": true
    },
    {
      "id": 30,
      "content": "<|reserved_30|>",
      "single_word": false,
      "lstrip": false,
      "rstrip": false,
      "normalized": false,
      "special": true
    },
    {
      "id": 31,
      "content": "<|reserved_31|>",
      "single_word": false,
      "lstrip": false,
      "rstrip": false,
      "normalized": false,
      "special": true
    }
  ],
  "normalizer": null,
  "pre_tokenizer": {
    "type": "ByteLevel",
    "add_prefix_space": false,
    "trim_offsets": true,
    "use_regex": true
  },
  "post_processor": {
    "type": "TemplateProcessing",
    "single": [
      {
        "SpecialToken": {
          "id": "<|begin_of_text|>",
          "type_id": 0
        }
      },
      {
        "Sequence": {
          "id": "A",
          "type_id": 0
        }
      },
      {
        "SpecialToken": {
          "id": "<|end_of_text|>",
          "type_id": 0
        }
      }
    ],
    "pair": [
      {
        "SpecialToken": {
          "id": "<|begin_of_text|>",
          "type_id": 0
        }
      },
      {
        "Sequence": {
          "id": "A",
          "type_id": 0
        }
      },
      {
        "SpecialToken": {
          "id": "<|end_of_text|>",
          "type_id": 0
        }
      },
      {
        "SpecialToken": {
          "id": "<|begin_of_text|>",
          "type_id": 0
        }
      },
      {
        "Sequence": {
          "id": "B",
          "type_id": 1
        }
      },
      {
        "SpecialToken": {
          "id": "<|end_of_text|>",
          "type_id": 1
        }
      }
    ],
    "special_tokens": {
      "<|begin_of_text|>": {
        "id": "<|begin_of_text|>",
        "ids": [
          1
        ],
        "tokens": [
          "<|begin_of_text|>"
        ]
      },
      "<|end_of_text|>": {
        "id": "<|end_of_text|>",
        "ids": [
          2
        ],
        "tokens": [
          "<|end_of_text|>"
        ]
      }
    }
  },
  "decoder": {
    "type": "ByteLevel",
    "add_prefix_space": true,
    "trim_offsets": true,
    "use_regex": true
  },
  "model": {
    "type": "BPE",
    "dropout": null,
    "unk_token": null,
    "continuing_subword_prefix": null,
    "end_of_word_suffix": null,
    "fuse_unk": false,
    "byte_fallback": false,
    "ignore_merges": false,
    "vocab": {
      "<|padding|>": 0,
      "<|begin_of_text|>": 1,
      "<|end_of_text|>": 2,
      "<|unknown|>": 3,
      "<|fim_prefix|>": 4,
      "<|fim_middle|>": 5,
      "<|fim_suffix|>": 6,
      "<|think|>": 7,
      "<|/think|>": 8,
      "<|answer|>": 9,
      "<|/answer|>": 10,
      "<|user|>": 11,
      "<|assistant|>": 12,
      "<|system|>": 13,
      "<|end_turn|>": 14,
      "<|tool_call|>": 15,
      "<|/tool_call|>": 16,
      "<|tool_result|>": 17,
      "<|/tool_result|>": 18,
      "<|image|>": 19,
      "<|audio|>": 20,
      "<|reserved_21|>": 21,
      "<|reserved_22|>": 22,
      "<|reserved_23|>": 23,
      "<|reserved_24|>": 24,
      "<|reserved_25|>": 25,
      "<|reserved_26|>": 26,
      "<|reserved_27|>": 27,
      "<|reserved_28|>": 28,
      "<|reserved_29|>": 29,
      "<|reserved_30|>": 30,
      "<|reserved_31|>": 31,
      "!": 32,
      "\"": 33,
      "#": 34,
      "$": 35,
      "%": 36,
      "&": 37,
      "'": 38,
      "(": 39,
      ")": 40,
      "*": 41,
      "+": 42,
      ",": 43,
      "-": 44,
      ".": 45,
      "/": 46,
      "0": 47,
      "1": 48,
      "2": 49,
      "3": 50,
      "4": 51,
      "5": 52,
      "6": 53,
      "7": 54,
      "8": 55,
      "9": 56,
      ":": 57,
      ";": 58,
      "<": 59,
      "=": 60,
      ">": 61,
      "?": 62,
      "@": 63,
      "A": 64,
      "B": 65,
      "C": 66,
      "D": 67,
      "E": 68,
      "F": 69,
      "G": 70,
      "H": 71,
      "I": 72,
      "J": 73,
      "K": 74,
      "L": 75,
      "M": 76,
      "N": 77,
      "O": 78,
      "P": 79,
      "Q": 80,
      "R": 81,
      "S": 82,
      "T": 83,
      "U": 84,
      "V": 85,
      "W": 86,
      "X": 87,
      "Y": 88,
      "Z": 89,
      "[": 90,
      "\\": 91,
      "]": 92,
      "^": 93,
      "_": 94,
      "`": 95,
      "a": 96,
      "b": 97,
      "c": 98,
      "d": 99,
      "e": 100,
      "f": 101,
      "g": 102,
      "h": 103,
      "i": 104,
      "j": 105,
      "k": 106,
      "l": 107,
      "m": 108,
      "n": 109,
      "o": 110,
      "p": 111,
      "q": 112,
      "r": 113,
      "s": 114,
      "t": 115,
      "u": 116,
      "v": 117,
      "w": 118,
      "x": 119,
      "y": 120,
      "z": 121,
      "{": 122,
      "|": 123,
      "}": 124,
      "~": 125,
      "¡": 126,
      "¢": 127,
      "£": 128,
      "¤": 129,
      "¥": 130,
      "¦": 131,
      "§": 132,
      "¨": 133,
      "©": 134,
      "ª": 135,
      "«": 136,
      "¬": 137,
      "®": 138,
      "¯": 139,
      "°": 140,
      "±": 141,
      "²": 142,
      "³": 143,
      "´": 144,
      "µ": 145,
      "¶": 146,
      "·": 147,
      "¸": 148,
      "¹": 149,
      "º": 150,
      "»": 151,
      "¼": 152,
      "½": 153,
      "¾": 154,
      "¿": 155,
      "À": 156,
      "Á": 157,
      "Â": 158,
      "Ã": 159,
      "Ä": 160,
      "Å": 161,
      "Æ": 162,
      "Ç": 163,
      "È": 164,
      "É": 165,
      "Ê": 166,
      "Ë": 167,
      "Ì": 168,
      "Í": 169,
      "Î": 170,
      "Ï": 171,
      "Ð": 172,
      "Ñ": 173,
      "Ò": 174,
      "Ó": 175,
      "Ô": 176,
      "Õ": 177,
      "Ö": 178,
      "×": 179,
      "Ø": 180,
      "Ù": 181,
      "Ú": 182,
      "Û": 183,
      "Ü": 184,
      "Ý": 185,
      "Þ": 186,
      "ß": 187,
      "à": 188,
      "á": 189,
      "â": 190,
      "ã": 191,
      "ä": 192,
      "å": 193,
      "æ": 194,
      "ç": 195,
      "è": 196,
      "é": 197,
      "ê": 198,
      "ë": 199,
      "ì": 200,
      "í": 201,
      "î": 202,
      "ï": 203,
      "ð": 204,
      "ñ": 205,
      "ò": 206,
      "ó": 207,
      "ô": 208,
      "õ": 209,
      "ö": 210,
      "÷": 211,
      "ø": 212,
      "ù": 213,
      "ú": 214,
      "û": 215,
      "ü": 216,
      "ý": 217,
      "þ": 218,
      "ÿ": 219,
      "Ā": 220,
      "ā": 221,
      "Ă": 222,
      "ă": 223,
      "Ą": 224,
      "ą": 225,
      "Ć": 226,
      "ć": 227,
      "Ĉ": 228,
      "ĉ": 229,
      "Ċ": 230,
      "ċ": 231,
      "Č": 232,
      "č": 233,
      "Ď": 234,
      "ď": 235,
      "Đ": 236,
      "đ": 237,
      "Ē": 238,
      "ē": 239,
      "Ĕ": 240,
      "ĕ": 241,
      "Ė": 242,
      "ė": 243,
      "Ę": 244,
      "ę": 245,
      "Ě": 246,
      "ě": 247,
      "Ĝ": 248,
      "ĝ": 249,
      "Ğ": 250,
      "ğ": 251,
      "Ġ": 252,
      "ġ": 253,
      "Ģ": 254,
      "ģ": 255,
      "Ĥ": 256,
      "ĥ": 257,
      "Ħ": 258,
      "ħ": 259,
      "Ĩ": 260,
      "ĩ": 261,
      "Ī": 262,
      "ī": 263,
      "Ĭ": 264,
      "ĭ": 265,
      "Į": 266,
      "į": 267,
      "İ": 268,
      "ı": 269,
      "Ĳ": 270,
      "ĳ": 271,
      "Ĵ": 272,
      "ĵ": 273,
      "Ķ": 274,
      "ķ": 275,
      "ĸ": 276,
      "Ĺ": 277,
      "ĺ": 278,
      "Ļ": 279,
      "ļ": 280,
      "Ľ": 281,
      "ľ": 282,
      "Ŀ": 283,
      "ŀ": 284,
      "Ł": 285,
      "ł": 286,
      "Ń": 287,
      "ĠĠ": 288,
      "Ġt": 289,
      "in": 290,
      "Ġa": 291,
      "he": 292,
      "ĠĠĠĠ": 293,
      "re": 294,
      "on": 295,
      "er": 296,
      "at": 297,
      "Ġthe": 298,
      "Ġs": 299,
      "or": 300,
      "en": 301,
      "es": 302,
      "Ġc": 303,
      "an": 304,
      "is": 305,
      "al": 306,
      "Ġo": 307,
      "it": 308,
      "Ġw": 309,
      "Ġp": 310,
      "Ġf": 311,
      "ing": 312,
      "ed": 313,
      "Ġan": 314,
      "ar": 315,
      "Ġin": 316,
      "ion": 317,
      "Ġb": 318,
      "Ġof": 319,
      "ic": 320,
      "ou": 321,
      "Ġd": 322,
      "Ġm": 323,
      "le": 324,
      "Ġand": 325,
      "Ġto": 326,
      "ĠĠĠ": 327,
      "ro": 328,
      "el": 329,
      "as": 330,
      "ĠĠĠĠĠĠĠĠ": 331,
      "ct": 332,
      "ent": 333,
      "et": 334,
      "Ġre": 335,
      "st": 336,
      "il": 337,
      "Ġh": 338,
      "om": 339,
      "Ġe": 340,
      "Ġth": 341,
      "Ġn": 342,
      "Ġl": 343,
      "im": 344,
      "am": 345,
      "Ġis": 346,
      "ol": 347,
      "ĠT": 348,
      "ation": 349,
      "id": 350,
      "ut": 351,
      "ur": 352,
      "ce": 353,
      "ot": 354,
      "ve": 355,
      "se": 356,
      "ĠĠĠĠĠĠĠ": 357,
      "ig": 358,
      "Ġg": 359,
      "Ġfor": 360,
      "âĢ": 361,
      "ch": 362,
      "ĠS": 363,
      "ra": 364,
      "ĠA": 365,
      "ow": 366,
      "ly": 367,
      "Ġu": 368,
      "ĠC": 369,
      "if": 370,
      "ul": 371,
      "ĠI": 372,
      "ver": 373,
      "Ġbe": 374,
      "Ġ=": 375,
      "Ġst": 376,
      "Ġ(": 377,
      "Ġon": 378,
      "ir": 379,
      "od": 380,
      "Ġ1": 381,
      "ad": 382,
      "ith": 383,
      "Ġy": 384,
      "Ġthat": 385,
      "Ġcon": 386,
      "ay": 387,
      "Ġas": 388,
      "Ġpro": 389,
      "um": 390,
      "ter": 391,
      "ag": 392,
      "ĠM": 393,
      "ate": 394,
      "Ġde": 395,
      "Ġwith": 396,
      "ab": 397,
      "elf": 398,
      "ist": 399,
      "qu": 400,
      "ĠP": 401,
      "est": 402,
      "pe": 403,
      "Ġal": 404,
      "em": 405,
      "Ġit": 406,
      "nd": 407,
      "ers": 408,
      "ri": 409,
      "Ġyou": 410,
      "ess": 411,
      "her": 412,
      "Ġare": 413,
      "Ġv": 414,
      "Ġ2": 415,
      "res": 416,
      "th": 417,
      "Ġor": 418,
      "ĠB": 419,
      "ĠThe": 420,
      "Ġex": 421,
      "us": 422,
      "ac": 423,
      "and": 424,
      "ity": 425,
      "op": 426,
      "Ġcom": 427,
      "un": 428,
      "ort": 429,
      "Ġwh": 430,
      "ment": 431,
      "oc": 432,
      "rom": 433,
      "os": 434,
      "ĠF": 435,
      "ect": 436,
      "ĠĠĠĠĠĠĠĠĠĠĠ": 437,
      "ĠH": 438,
      "ĠD": 439,
      "pp": 440,
      "ĠR": 441,
      "Ġhe": 442,
      "ke": 443,
      "iv": 444,
      "Ġ'": 445,
      "ain": 446,
      "ies": 447,
      "ore": 448,
      "nt": 449,
      "Ġ\"": 450,
      "ere": 451,
      "--": 452,
      "Ġsu": 453,
      "ĠN": 454,
      "Ġcan": 455,
      "igh": 456,
      "ĠW": 457,
      "ill": 458,
      "pt": 459,
      "ant": 460,
      "Ġby": 461,
      "Ġr": 462,
      "ĠE": 463,
      "ial": 464,
      "ĠL": 465,
      "00": 466,
      "ive": 467,
      "##": 468,
      "Ġat": 469,
      "pl": 470,
      "ure": 471,
      "Ġself": 472,
      "art": 473,
      "âĢĻ": 474,
      "ame": 475,
      "og": 476,
      "ĠG": 477,
      "Ġch": 478,
      "Ġfrom": 479,
      "ions": 480,
      "all": 481,
      "Ġen": 482,
      "ld": 483,
      "Ġse": 484,
      "Ġwas": 485,
      "ue": 486,
      "ud": 487,
      "Ġne": 488,
      "Ġnot": 489,
      "Ġim": 490,
      "per": 491,
      "ical": 492,
      "iz": 493,
      "ine": 494,
      "ge": 495,
      "ight": 496,
      "ave": 497,
      "Ġle": 498,
      "ass": 499,
      "ult": 500,
      "ĠĠĠĠĠĠĠĠĠĠĠĠĠĠĠĠ": 501,
      "our": 502,
      "age": 503,
      "ex": 504,
      "cl": 505,
      "Ġsh": 506,
      "act": 507,
      "Ġthis": 508,
      "ĠO": 509,
      "end": 510,
      "rou": 511,
      "Ġwe": 512,
      "du": 513,
      "ff": 514,
      "Ġus": 515,
      "Ġpl": 516,
      "):": 517,
      "orm": 518,
      "ost": 519,
      "ĠâĢ": 520,
      "ated": 521,
      "ard": 522,
      "port": 523,
      "are": 524,
      "out": 525,
      "Ġif": 526,
      "ich": 527,
      "Ġint": 528,
      "Ġres": 529,
      "Ġhave": 530,
      "able": 531,
      "ust": 532,
      "ip": 533,
      "The": 534,
      "Ġcomp": 535,
      "ell": 536,
      "ance": 537,
      "',": 538,
      "ations": 539,
      "ans": 540,
      "ĠJ": 541,
      "Ġcont": 542,
      "self": 543,
      "),": 544,
      "ction": 545,
      "ĠU": 546,
      "one": 547,
      "ak": 548,
      "ile": 549,
      "ib": 550,
      "ap": 551,
      "ork": 552,
      "Ġad": 553,
      "ome": 554,
      "Ġab": 555,
      "ast": 556,
      "ign": 557,
      "con": 558,
      "ther": 559,
      "int": 560,
      "ath": 561,
      "ire": 562,
      "Ġyour": 563,
      "ide": 564,
      "cc": 565,
      "ould": 566,
      "urn": 567,
      "ber": 568,
      "ĠIn": 569,
      "ind": 570,
      "ary": 571,
      "gh": 572,
      "ie": 573,
      "ry": 574,
      "ord": 575,
      "Ġwhe": 576,
      "Ġ$": 577,
      "Ġ19": 578,
      "ack": 579,
      "Ġk": 580,
      "ime": 581,
      "Ġtheir": 582,
      "ĠTh": 583,
      "Ġcl": 584,
      "ru": 585,
      "Ġdef": 586,
      "ous": 587,
      "so": 588,
      "ong": 589,
      "ang": 590,
      "Ġwhich": 591,
      "Ġall": 592,
      "ep": 593,
      "av": 594,
      "ia": 595,
      "ata": 596,
      "ef": 597,
      "'s": 598,
      "01": 599,
      "Ġ#": 600,
      "ase": 601,
      "ub": 602,
      "ces": 603,
      "form": 604,
      "ach": 605,
      "----": 606,
      "..": 607,
      "vel": 608,
      "ents": 609,
      "ition": 610,
      "Ġ\\": 611,
      "ence": 612,
      "ens": 613,
      "Ġhas": 614,
      "ice": 615,
      "ual": 616,
      "Ġar": 617,
      "ress": 618,
      "Ġ-": 619,
      "Ġdis": 620,
      "ace": 621,
      "Ġwill": 622,
      "ok": 623,
      "()": 624,
      "Ġalso": 625,
      "Ġ0": 626,
      "Ġj": 627,
      "ert": 628,
      "Ġ3": 629,
      "ĠK": 630,
      "Ġun": 631,
      "ater": 632,
      "Ġmore": 633,
      "get": 634,
      "ĠĠĠĠĠĠĠĠĠĠĠĠĠĠĠ": 635,
      "ors": 636,
      "ĠSt": 637,
      "ear": 638,
      "Ġret": 639,
      "Ġdo": 640,
      "ject": 641,
      "Ġme": 642,
      "ory": 643,
      "ood": 644,
      "ild": 645,
      "ake": 646,
      "ount": 647,
      "Ġsy": 648,
      "Ġpre": 649,
      "ph": 650,
      "ob": 651,
      "Ġbut": 652,
      ").": 653,
      "ple": 654,
      "ite": 655,
      "ail": 656,
      "Ġthey": 657,
      "Ġ[": 658,
      "__": 659,
      "Ġman": 660,
      "ric": 661,
      "Âł": 662,
      "\"\"": 663,
      "Ġper": 664,
      "Ġout": 665,
      "ĠV": 666,
      "Ġqu": 667,
      "vers": 668,
      "Ġother": 669,
      "':": 670,
      "Ġsc": 671,
      "ound": 672,
      "ose": 673,
      "Ġte": 674,
      "Ġapp": 675,
      "Ġone": 676,
      "ext": 677,
      "Ġpart": 678,
      "ely": 679,
      "ian": 680,
      "Ġsp": 681,
      "ck": 682,
      "ĠThis": 683,
      "Ġcomm": 684,
      "ĠIt": 685,
      "pec": 686,
      "ish": 687,
      "Ġev": 688,
      "own": 689,
      "Ġso": 690,
      "iff": 691,
      "Ġreturn": 692,
      "####": 693,
      "ys": 694,
      "Ġro": 695,
      "low": 696,
      "com": 697,
      "ates": 698,
      "erv": 699,
      "Ġtr": 700,
      "nder": 701,
      "ific": 702,
      "Ġwork": 703,
      "ype": 704,
      "ree": 705,
      "au": 706,
      "Ġ+": 707,
      "ings": 708,
      "tern": 709,
      "cre": 710,
      "lect": 711,
      "ms": 712,
      "ĠCh": 713,
      "pro": 714,
      "Ġmod": 715,
      "rib": 716,
      "cess": 717,
      "ew": 718,
      "eth": 719,
      "eg": 720,
      "ari": 721,
      "\",": 722,
      "Ġtra": 723,
      "eld": 724,
      "ating": 725,
      "âĢĿ": 726,
      "Ġ4": 727,
      "Ġimport": 728,
      "('": 729,
      "Ġits": 730,
      "ov": 731,
      "lic": 732,
      "ks": 733,
      "ft": 734,
      "Ġtime": 735,
      "==": 736,
      "Ġli": 737,
      "ĠY": 738,
      "ook": 739,
      "In": 740,
      "Ġwere": 741,
      "name": 742,
      "clud": 743,
      "very": 744,
      "Ġval": 745,
      "etw": 746,
      "Ġuse": 747,
      "stem": 748,
      "rit": 749,
      "Ġup": 750,
      "Ġ{": 751,
      "Ġass": 752,
      "te": 753,
      "Ġcol": 754,
      "irst": 755,
      "ient": 756,
      "Ġhis": 757,
      "ove": 758,
      "ield": 759,
      "Ġdiff": 760,
      "Ġabout": 761,
      "olog": 762,
      "mer": 763,
      "Ġra": 764,
      "ll": 765,
      "ener": 766,
      "Ġover": 767,
      "Ġinto": 768,
      "ics": 769,
      "les": 770,
      "Ġacc": 771,
      "ode": 772,
      "Ġdes": 773,
      "Ġcons": 774,
      "lp": 775,
      "Ġ201": 776,
      "ities": 777,
      "row": 778,
      "Ġwhen": 779,
      "Ġind": 780,
      "Ġnum": 781,
      "ility": 782,
      "Ġmay": 783,
      "))": 784,
      "ments": 785,
      "Ġpe": 786,
      "ally": 787,
      "Ġunder": 788,
      "ize": 789,
      "Ġact": 790,
      "Ġ5": 791,
      "Ġsome": 792,
      "ĠâĢĵ": 793,
      "Ġtw": 794,
      "Ġthese": 795,
      "ict": 796,
      "Ġob": 797,
      "Ġstud": 798,
      "Ġcre": 799,
      "ular": 800,
      "ays": 801,
      "ĠâĢľ": 802,
      "alth": 803,
      "Ġdata": 804,
      "ons": 805,
      "arg": 806,
      "ise": 807,
      "Ġnew": 808,
      "ning": 809,
      "Ġkn": 810,
      "Ġag": 811,
      "Ġhelp": 812,
      "oint": 813,
      "ool": 814,
      "put": 815,
      "Ġeff": 816,
      "Ġthere": 817,
      "čĊ": 818,
      "val": 819,
      "ax": 820,
      "Ġwho": 821,
      "Ġinclud": 822,
      "Ġsuch": 823,
      "ren": 824,
      "Ġadd": 825,
      "ock": 826,
      "cept": 827,
      "Ġ|": 828,
      "Ġprov": 829,
      "Ġthem": 830,
      "Ġneed": 831,
      "ative": 832,
      "Ġgo": 833,
      "ange": 834,
      "Ġpr": 835,
      "ark": 836,
      "hed": 837,
      "ople": 838,
      "ational": 839,
      "pect": 840,
      "ced": 841,
      "Ġthan": 842,
      "Ġset": 843,
      "Ġrel": 844,
      "old": 845,
      "19": 846,
      "Ġhow": 847,
      "']": 848,
      "rough": 849,
      "Ġspec": 850,
      "Ġem": 851,
      "Ġrec": 852,
      "als": 853,
      "Ġused": 854,
      "Ġreg": 855,
      "Ġany": 856,
      "Ġ6": 857,
      "uring": 858,
      "Ġfirst": 859,
      "Ġget": 860,
      "Ġprodu": 861,
      "ract": 862,
      "ram": 863,
      "Ġbl": 864,
      "Ġbec": 865,
      "eren": 866,
      "ures": 867,
      "Ġsystem": 868,
      "')": 869,
      "Ġ200": 870,
      "iss": 871,
      "ĠUn": 872,
      "ps": 873,
      "app": 874,
      "ution": 875,
      "ec": 876,
      "Ġfun": 877,
      "Ġoff": 878,
      "its": 879,
      "ough": 880,
      "ased": 881,
      "Ġbeen": 882,
      "erm": 883,
      "reat": 884,
      "Ġtwo": 885,
      "Ġsub": 886,
      "oth": 887,
      "Ġpos": 888,
      "ied": 889,
      "ues": 890,
      "Ġtest": 891,
      "ne": 892,
      "Ġonly": 893,
      "ble": 894,
      "Ġform": 895,
      "Ġyear": 896,
      "velop": 897,
      "Ġtrans": 898,
      "Ġfe": 899,
      "ix": 900,
      "Ġ\"\"\"": 901,
      "Ġstr": 902,
      "Ġco": 903,
      "Ġlike": 904,
      "fter": 905,
      "ful": 906,
      "Ġour": 907,
      "ause": 908,
      "Ġph": 909,
      "een": 910,
      "hen": 911,
      "Ġinst": 912,
      "['": 913,
      "els": 914,
      "ss": 915,
      "Ġ:": 916,
      "par": 917,
      "ink": 918,
      "Ġinter": 919,
      "(\"": 920,
      "ont": 921,
      "Ġpeople": 922,
      "--------": 923,
      "Ġel": 924,
      "Ġresult": 925,
      "Ġno": 926,
      "key": 927,
      "Ġatt": 928,
      "red": 929,
      "cy": 930,
      "aw": 931,
      "ower": 932,
      "ick": 933,
      "round": 934,
      "Ġvari": 935,
      "Ġbu": 936,
      "ible": 937,
      "Ġfl": 938,
      "Ġsupp": 939,
      "up": 940,
      "ĠHe": 941,
      "Ġam": 942,
      "ĠĊ": 943,
      "Ġrequ": 944,
      "Ġ20": 945,
      "ten": 946,
      "ĉĉ": 947,
      "ond": 948,
      "Ġwhere": 949,
      "etween": 950,
      "Ġsign": 951,
      "Ġhealth": 952,
      "ential": 953,
      "Ġwould": 954,
      "._": 955,
      "Ġmost": 956,
      "arch": 957,
      "Ġthrough": 958,
      "ng": 959,
      "chn": 960,
      "Ġrem": 961,
      "Ġx": 962,
      "Ġinv": 963,
      "sh": 964,
      "Ġhad": 965,
      "ruct": 966,
      "Ġdevelop": 967,
      "rue": 968,
      "Ġinf": 969,
      "iew": 970,
      "orld": 971,
      "Ġplay": 972,
      "Ġbetween": 973,
      "eng": 974,
      "tt": 975,
      "yp": 976,
      "erent": 977,
      "set": 978,
      "$$": 979,
      "ug": 980,
      "Ġdist": 981,
      "Ġshould": 982,
      "Ġpol": 983,
      "ines": 984,
      "âĢĵ": 985,
      "Ġexp": 986,
      "hes": 987,
      "ices": 988,
      "Ġsim": 989,
      "Ġdi": 990,
      "ample": 991,
      "de": 992,
      "ethod": 993,
      "ature": 994,
      "ror": 995,
      "ting": 996,
      "Ġwhat": 997,
      "Ġgener": 998,
      "Ġac": 999,
      "ollow": 1000,
      "Ġsol": 1001,
      "sc": 1002,
      "Ġequ": 1003,
      "Ġwell": 1004,
      "Ġ%": 1005,
      "pr": 1006,
      "def": 1007,
      "Ġdet": 1008,
      "Ġthen": 1009,
      "ered": 1010,
      "Ġpar": 1011,
      "Ġhigh": 1012,
      "10": 1013,
      "Ġmat": 1014,
      "gy": 1015,
      "ĠĠĠĠĠĠĠĠĠĠĠĠĠĠĠĠĠĠĠ": 1016,
      "oy": 1017,
      "ious": 1018,
      "Ġdifferent": 1019,
      "Ġcur": 1020,
      "Ġ7": 1021,
      "ural": 1022,
      "ĠPro": 1023,
      "ts": 1024,
      "ins": 1025,
      "Ġprocess": 1026,
      "],": 1027,
      "ages": 1028,
      "Ġsm": 1029,
      "ited": 1030,
      "hem": 1031,
      "vent": 1032,
      "Ġmany": 1033,
      "Ġmake": 1034,
      "gan": 1035,
      "Ġsa": 1036,
      "20": 1037,
      "Ġexper": 1038,
      "ption": 1039,
      "Ġ18": 1040,
      "Ġsur": 1041,
      "Ġref": 1042,
      "Ġusing": 1043,
      "ident": 1044,
      "ute": 1045,
      "ward": 1046,
      "ists": 1047,
      "resent": 1048,
      "ĠCom": 1049,
      "ever": 1050,
      "Ġfil": 1051,
      "io": 1052,
      "Ġeach": 1053,
      "fore": 1054,
      "Ġloc": 1055,
      "ife": 1056,
      "Ġed": 1057,
      "read": 1058,
      "ience": 1059,
      "aking": 1060,
      "from": 1061,
      "str": 1062,
      "ĠĠĠĠĠ": 1063,
      "Ġ==": 1064,
      "roup": 1065,
      "ade": 1066,
      "Ġnumber": 1067,
      "ily": 1068,
      "Ġeffect": 1069,
      "**": 1070,
      "irect": 1071,
      "ized": 1072,
      "to": 1073,
      "âĢ¢": 1074,
      "{\\": 1075,
      "Ġchild": 1076,
      "hat": 1077,
      "Ġfollow": 1078,
      "iron": 1079,
      "ness": 1080,
      "Ġext": 1081,
      "raph": 1082,
      "ants": 1083,
      "Ġtechn": 1084,
      "\")": 1085,
      "ection": 1086,
      "uc": 1087,
      "Ġ.": 1088,
      "path": 1089,
      "lo": 1090,
      "ology": 1091,
      "inal": 1092,
      "Ġ&": 1093,
      "St": 1094,
      "Ġent": 1095,
      "stand": 1096,
      "ĠNone": 1097,
      "Ġ_": 1098,
      "oci": 1099,
      "ĠIf": 1100,
      "ator": 1101,
      "wn": 1102,
      "Ġlear": 1103,
      "rent": 1104,
      "Ġwater": 1105,
      "ource": 1106,
      "erson": 1107,
      "Ġcall": 1108,
      "ically": 1109,
      "ĠAl": 1110,
      "Ġafter": 1111,
      "Ġcomple": 1112,
      "Ġjust": 1113,
      "Ġher": 1114,
      "ĠWe": 1115,
      "Ġ10": 1116,
      "pos": 1117,
      "uth": 1118,
      "Ġincre": 1119,
      "land": 1120,
      "Ġmin": 1121,
      "co": 1122,
      "Ġcor": 1123,
      "Ġfunction": 1124,
      "type": 1125,
      "Ġmed": 1126,
      "Ġpoint": 1127,
      "Ġprog": 1128,
      "Ġmain": 1129,
      "cent": 1130,
      "########": 1131,
      "Ġfound": 1132,
      "Ġconf": 1133,
      "meric": 1134,
      "ier": 1135,
      "ined": 1136,
      "ĠFor": 1137,
      "Ġknow": 1138,
      "Ġname": 1139,
      "chool": 1140,
      "viron": 1141,
      "ĠAn": 1142,
      "Ġlead": 1143,
      "der": 1144,
      "ĠAr": 1145,
      "ety": 1146,
      "Ġresp": 1147,
      "Ġappro": 1148,
      "line": 1149,
      "formation": 1150,
      "ivers": 1151,
      "Ġart": 1152,
      "air": 1153,
      "mod": 1154,
      "att": 1155,
      "Ġvalue": 1156,
      "ality": 1157,
      "Ġclass": 1158,
      "imes": 1159,
      "ublic": 1160,
      "Th": 1161,
      "ale": 1162,
      "Ġconst": 1163,
      "ives": 1164,
      "Ġcould": 1165,
      "====": 1166,
      "Ġlong": 1167,
      "ases": 1168,
      "Ġpartic": 1169,
      "text": 1170,
      "alse": 1171,
      "Ġsee": 1172,
      "ĠRe": 1173,
      "Ġend": 1174,
      "cond": 1175,
      "Ġproble": 1176,
      "Ġserv": 1177,
      "any": 1178,
      "Ġ8": 1179,
      "ision": 1180,
      "}}": 1181,
      "ĠSe": 1182,
      "Ġdec": 1183,
      "Ġway": 1184,
      "ars": 1185,
      "heck": 1186,
      "other": 1187,
      "ner": 1188,
      "Ġser": 1189,
      "anc": 1190,
      "ĠQ": 1191,
      "led": 1192,
      "Ġfact": 1193,
      "ability": 1194,
      "iqu": 1195,
      "Ġshow": 1196,
      "ivid": 1197,
      "Ġwhile": 1198,
      "rac": 1199,
      "uch": 1200,
      "ense": 1201,
      "ody": 1202,
      "Ġsame": 1203,
      "arm": 1204,
      "Ġcent": 1205,
      "ral": 1206,
      "Ġcommun": 1207,
      "file": 1208,
      "Ġfind": 1209,
      "ify": 1210,
      "Ġeven": 1211,
      "Ġstart": 1212,
      "dition": 1213,
      "...": 1214,
      "Ġyears": 1215,
      "ER": 1216,
      "Ġboth": 1217,
      "Ġdoes": 1218,
      "Ġins": 1219,
      "Ġmethod": 1220,
      "ĠEx": 1221,
      "ional": 1222,
      "ism": 1223,
      "ames": 1224,
      "Ġprovid": 1225,
      "Ġsupport": 1226,
      "ually": 1227,
      "12": 1228,
      "Ġav": 1229,
      "Ġpat": 1230,
      "Ġdep": 1231,
      "ern": 1232,
      "Ġexpl": 1233,
      "Ġduring": 1234,
      "ĠHow": 1235,
      "Ġsk": 1236,
      "Ġback": 1237,
      "ien": 1238,
      "ox": 1239,
      "hip": 1240,
      "Ġear": 1241,
      "Ġcount": 1242,
      "right": 1243,
      "data": 1244,
      "ved": 1245,
      "//": 1246,
      "pen": 1247,
      "Ġline": 1248,
      "ted": 1249,
      "ull": 1250,
      "py": 1251,
      "oot": 1252,
      "Ġstate": 1253,
      "Ġmy": 1254,
      "Ġ$$": 1255,
      "Ġrep": 1256,
      "ray": 1257,
      "Ġlist": 1258,
      "Ġredu": 1259,
      "ank": 1260,
      "Ġbel": 1261,
      "ĠAs": 1262,
      "Ġbecause": 1263,
      "Ġlevel": 1264,
      "\":": 1265,
      "itions": 1266,
      "ince": 1267,
      "ization": 1268,
      "add": 1269,
      "Ġevery": 1270,
      "_{": 1271,
      "Ġmon": 1272,
      "ty": 1273,
      "000": 1274,
      "Ġworld": 1275,
      "class": 1276,
      "ann": 1277,
      "erences": 1278,
      "assert": 1279,
      "iven": 1280,
      "Ġimportant": 1281,
      "Ġest": 1282,
      "Ġcar": 1283,
      "ets": 1284,
      "Ex": 1285,
      "Ġ<": 1286,
      "Ġright": 1287,
      "the": 1288,
      "Ġread": 1289,
      "ault": 1290,
      "Ġdesign": 1291,
      "Ġelect": 1292,
      "rol": 1293,
      "ash": 1294,
      "ired": 1295,
      "Ġallow": 1296,
      "Ġ9": 1297,
      "Ġshe": 1298,
      "Ġi": 1299,
      "Ġbeing": 1300,
      "amp": 1301,
      "vironment": 1302,
      "ĠAmeric": 1303,
      "ser": 1304,
      "requ": 1305,
      "Ġ)": 1306,
      ".,": 1307,
      "Ġmem": 1308,
      "min": 1309,
      "Ġca": 1310,
      "orn": 1311,
      "Ġimp": 1312,
      "Ġ*": 1313,
      "uss": 1314,
      "Ġelse": 1315,
      "ished": 1316,
      "ĠĠĠĠĠĠĠĠĠĠĠĠĠĠĠĠĠĠĠĠĠĠĠĠĠĠĠĠĠĠĠĠ": 1317,
      "'t": 1318,
      "Ġmet": 1319,
      "yn": 1320,
      "Ġrese": 1321,
      "tain": 1322,
      "ron": 1323,
      "ital": 1324,
      "Ġoper": 1325,
      "und": 1326,
      "arge": 1327,
      "math": 1328,
      "Ġoften": 1329,
      "ĠInd": 1330,
      "='": 1331,
      "ider": 1332,
      "ument": 1333,
      "Ġcontin": 1334,
      "Ġgl": 1335,
      "cul": 1336,
      "ĠNew": 1337,
      "Ġinformation": 1338,
      "bers": 1339,
      "Ġtype": 1340,
      "Ġlife": 1341,
      "ves": 1342,
      "ason": 1343,
      "ĠThey": 1344,
      "Ġperson": 1345,
      "Ġexample": 1346,
      "ote": 1347,
      "ather": 1348,
      "Ġele": 1349,
      "Ġhum": 1350,
      "Ġhand": 1351,
      "ware": 1352,
      "Ġtem": 1353,
      "Ġgrow": 1354,
      "Ġfam": 1355,
      "ĠDe": 1356,
      "Ġunderstand": 1357,
      "Ġbuild": 1358,
      "Ġdirect": 1359,
      "Ġener": 1360,
      "])": 1361,
      "itive": 1362,
      "AT": 1363,
      "ters": 1364,
      "Ġpass": 1365,
      "ement": 1366,
      "Ġgu": 1367,
      "Ġvery": 1368,
      "ton": 1369,
      "Ġown": 1370,
      "Ġagain": 1371,
      "Ġbefore": 1372,
      "Ġthose": 1373,
      "Ġfield": 1374,
      "Ġcare": 1375,
      "IN": 1376,
      "ask": 1377,
      "Ġprogram": 1378,
      "Ġpower": 1379,
      "Ġmodel": 1380,
      "ĠYou": 1381,
      "Ġap": 1382,
      "ery": 1383,
      "Ġkey": 1384,
      "frac": 1385,
      "True": 1386,
      "11": 1387,
      "ross": 1388,
      "201": 1389,
      "cur": 1390,
      "ining": 1391,
      "ĠZ": 1392,
      "Ġproper": 1393,
      "az": 1394,
      "Ġlook": 1395,
      "Ġprot": 1396,
      "Ġopt": 1397,
      "Ġfin": 1398,
      "ah": 1399,
      "Ġsmall": 1400,
      "Ġadv": 1401,
      "ĠAd": 1402,
      "onse": 1403,
      "=\"": 1404,
      "Ġmade": 1405,
      "Ġposs": 1406,
      "args": 1407,
      "Ġincluding": 1408,
      "ividual": 1409,
      "Ġperform": 1410,
      "bl": 1411,
      "ape": 1412,
      "ĠSc": 1413,
      "Ġpop": 1414,
      "ven": 1415,
      "atch": 1416,
      "Ġenergy": 1417,
      "ON": 1418,
      "Ġbr": 1419,
      "atic": 1420,
      "Ġmust": 1421,
      "ĠThese": 1422,
      "Ġactiv": 1423,
      "Ġdisc": 1424,
      "li": 1425,
      "Ġcle": 1426,
      "Ġimpro": 1427,
      "view": 1428,
      "akes": 1429,
      "iversity": 1430,
      "Ġtyp": 1431,
      "}{": 1432,
      "ee": 1433,
      "Ġpot": 1434,
      "ĠSh": 1435,
      "Ġcal": 1436,
      "Ġhist": 1437,
      "man": 1438,
      "for": 1439,
      "vern": 1440,
      "18": 1441,
      "Ġanal": 1442,
      "Ġfile": 1443,
      "oun": 1444,
      "Ġlog": 1445,
      "Ġ@": 1446,
      "Ġer": 1447,
      "Ġrun": 1448,
      "olum": 1449,
      "test": 1450,
      "Ġobject": 1451,
      "ering": 1452,
      "way": 1453,
      "Ġmult": 1454,
      "Ġz": 1455,
      "erence": 1456,
      "sw": 1457,
      "Ġsignific": 1458,
      "nect": 1459,
      "Ġpract": 1460,
      "Ġris": 1461,
      "Ġorgan": 1462,
      "Ġgood": 1463,
      "ym": 1464,
      "Ġproject": 1465,
      "angu": 1466,
      "ains": 1467,
      "Ġgra": 1468,
      "ration": 1469,
      "gg": 1470,
      "Ġens": 1471,
      "Ġindividual": 1472,
      "Ġenvironment": 1473,
      "ams": 1474,
      "Ġsym": 1475,
      "Ġtake": 1476,
      "aj": 1477,
      "etwork": 1478,
      "ared": 1479,
      "ES": 1480,
      "Ġproduct": 1481,
      "Ġmuch": 1482,
      "ribut": 1483,
      "ule": 1484,
      "by": 1485,
      "version": 1486,
      "Ġbre": 1487,
      "Ġthree": 1488,
      "lish": 1489,
      "aterial": 1490,
      "Ġ199": 1491,
      "ium": 1492,
      "Ġeng": 1493,
      "ĠCon": 1494,
      "ively": 1495,
      "Ġke": 1496,
      "Ġcurrent": 1497,
      "^{": 1498,
      "date": 1499,
      "ified": 1500,
      "Ġsecond": 1501,
      "dict": 1502,
      "Ġquest": 1503,
      "Ġ>": 1504,
      "ords": 1505,
      "ulation": 1506,
      "}$": 1507,
      "ries": 1508,
      "oss": 1509,
      "amet": 1510,
      "ik": 1511,
      "Ġarg": 1512,
      "ids": 1513,
      "mon": 1514,
      "ole": 1515,
      "ret": 1516,
      "ources": 1517,
      "This": 1518,
      "list": 1519,
      "Ġfood": 1520,
      "Ġdown": 1521,
      "Ġident": 1522,
      "Ġwrit": 1523,
      "Ġmeas": 1524,
      "Ġknown": 1525,
      "Ġnow": 1526,
      "Ġstand": 1527,
      "Ġve": 1528,
      "ccess": 1529,
      "ior": 1530,
      "ury": 1531,
      "Ġcommon": 1532,
      "acter": 1533,
      "son": 1534,
      "Ġprof": 1535,
      "of": 1536,
      "import": 1537,
      "Ġ$\\": 1538,
      "ĠCl": 1539,
      "Ref": 1540,
      "ocial": 1541,
      "arent": 1542,
      "rror": 1543,
      "fo": 1544,
      "Ġfollowing": 1545,
      "ples": 1546,
      "Ġschool": 1547,
      "50": 1548,
      "iness": 1549,
      "Ġchar": 1550,
      "200": 1551,
      "Ġdesc": 1552,
      "Ġchang": 1553,
      "Ġbody": 1554,
      "Ġstudents": 1555,
      "orth": 1556,
      "ental": 1557,
      "Ġtry": 1558,
      "Ġprint": 1559,
      "Ġnon": 1560,
      "ving": 1561,
      "Ġopen": 1562,
      "ouse": 1563,
      "yle": 1564,
      "Ġiss": 1565,
      "Ġchildren": 1566,
      "Ġaround": 1567,
      "play": 1568,
      "ats": 1569,
      "Ġgiven": 1570,
      "Ġwithout": 1571,
      "AR": 1572,
      "Ġvis": 1573,
      "Ġstudy": 1574,
      "iod": 1575,
      "Ġbeh": 1576,
      "ead": 1577,
      "time": 1578,
      "Ġreal": 1579,
      "Ġocc": 1580,
      "Ġ12": 1581,
      "omet": 1582,
      "Ġ}": 1583,
      "agn": 1584,
      "Ġaff": 1585,
      "Ġeas": 1586,
      "ternal": 1587,
      "ength": 1588,
      "oh": 1589,
      "omen": 1590,
      "Ġtreat": 1591,
      "Ġtop": 1592,
      "fig": 1593,
      "be": 1594,
      "outh": 1595,
      "Ġless": 1596,
      "ency": 1597,
      "----------------": 1598,
      "bs": 1599,
      "Ch": 1600,
      "Ġdev": 1601,
      "irc": 1602,
      "url": 1603,
      "Ġstruct": 1604,
      "ĠWh": 1605,
      "log": 1606,
      "Error": 1607,
      "ateg": 1608,
      "Ġben": 1609,
      "Ġwithin": 1610,
      "Ġsing": 1611,
      "iving": 1612,
      "Ġwant": 1613,
      "Ġdel": 1614,
      "ĠX": 1615,
      "Ġprovide": 1616,
      "Ġmanag": 1617,
      "ances": 1618,
      "Ġgroup": 1619,
      "rain": 1620,
      "Ġmark": 1621,
      "Ġsignificant": 1622,
      "Ġorder": 1623,
      "ination": 1624,
      "Ġpri": 1625,
      "ball": 1626,
      "Ġcreate": 1627,
      "rite": 1628,
      "Ġinclude": 1629,
      "qual": 1630,
      "ots": 1631,
      "day": 1632,
      "inc": 1633,
      "://": 1634,
      "ately": 1635,
      "Ġchange": 1636,
      "Ġplan": 1637,
      "Ġeduc": 1638,
      "Ġmaterial": 1639,
      "It": 1640,
      "atus": 1641,
      "Ġphys": 1642,
      "aces": 1643,
      "Ġmus": 1644,
      "ĠPh": 1645,
      "Ġsaf": 1646,
      "Ġcase": 1647,
      "16": 1648,
      "not": 1649,
      "Ġcap": 1650,
      "Ġlim": 1651,
      "ially": 1652,
      "ta": 1653,
      "ĠHowever": 1654,
      "Ġpres": 1655,
      "Ġbased": 1656,
      "less": 1657,
      "br": 1658,
      "ember": 1659,
      "Ġbet": 1660,
      "oms": 1661,
      "ĠEng": 1662,
      "value": 1663,
      "oid": 1664,
      "Ġ,": 1665,
      "15": 1666,
      "field": 1667,
      "rans": 1668,
      "ertain": 1669,
      "Ġcalled": 1670,
      "Ġdon": 1671,
      "Ġaccess": 1672,
      "erest": 1673,
      "ĠPl": 1674,
      "conom": 1675,
      "Ġpotential": 1676,
      "13": 1677,
      "Ġinteg": 1678,
      "Ġpost": 1679,
      "Ġtext": 1680,
      "ique": 1681,
      "anguage": 1682,
      "Ġcour": 1683,
      "here": 1684,
      "Ġpur": 1685,
      "ĠAnd": 1686,
      "ĠOn": 1687,
      "ĠThere": 1688,
      "Ġday": 1689,
      "Ġaut": 1690,
      "References": 1691,
      "Ġindu": 1692,
      "Ġresearch": 1693,
      "ĠIs": 1694,
      "lished": 1695,
      "Ġproblem": 1696,
      "ables": 1697,
      "ns": 1698,
      "por": 1699,
      "Ġhim": 1700,
      "lu": 1701,
      "comm": 1702,
      "Ġide": 1703,
      "Ġrange": 1704,
      "Ġrele": 1705,
      "Ġess": 1706,
      "we": 1707,
      "Ġapplic": 1708,
      "ems": 1709,
      "None": 1710,
      "Ġmight": 1711,
      "Ġlit": 1712,
      "Ġdevelopment": 1713,
      "Ġpublic": 1714,
      "reen": 1715,
      "ird": 1716,
      "Ġlight": 1717,
      "Ġcell": 1718,
      "ma": 1719,
      "ST": 1720,
      "Ġspe": 1721,
      "lab": 1722,
      "ĠLe": 1723,
      "ĠUniversity": 1724,
      "Ġthink": 1725,
      "xt": 1726,
      "Ġbest": 1727,
      "Ġappe": 1728,
      "ĠAmerican": 1729,
      "Ġlearning": 1730,
      "Ġprom": 1731,
      "Ġmean": 1732,
      "Ġsaid": 1733,
      "Ġcontrol": 1734,
      "Ġsystems": 1735,
      "\"\"\"": 1736,
      "Ġimpact": 1737,
      "Ġarea": 1738,
      "Ġland": 1739,
      "ission": 1740,
      "aving": 1741,
      "Ġpresent": 1742,
      "Ġinvol": 1743,
      "back": 1744,
      "Ġlo": 1745,
      "opy": 1746,
      "Ġcult": 1747,
      "imate": 1748,
      "Ġbus": 1749,
      "14": 1750,
      "Ġorig": 1751,
      "ression": 1752,
      "Ġ/": 1753,
      "....": 1754,
      "Ġrest": 1755,
      "uthor": 1756,
      "uro": 1757,
      ".âĢĿ": 1758,
      "tle": 1759,
      "icle": 1760,
      "Ġplace": 1761,
      "face": 1762,
      "Ġvarious": 1763,
      "fil": 1764,
      "rem": 1765,
      "25": 1766,
      "ina": 1767,
      "Pro": 1768,
      "Ġaddition": 1769,
      "ĠRes": 1770,
      "cing": 1771,
      "Ġgr": 1772,
      "30": 1773,
      "Ġhere": 1774,
      "arget": 1775,
      "Ġcho": 1776,
      "Ġstill": 1777,
      "OR": 1778,
      "raw": 1779,
      "Ġhuman": 1780,
      "Ġ||": 1781,
      "ffic": 1782,
      "Ġet": 1783,
      "Ġresults": 1784,
      "Ġhead": 1785,
      "Ġsever": 1786,
      "duct": 1787,
      "col": 1788,
      "ger": 1789,
      "Ġlarge": 1790,
      "Ġinc": 1791,
      "ived": 1792,
      "alk": 1793,
      "sp": 1794,
      "Ġ15": 1795,
      "Ġspecific": 1796,
      "Ġgen": 1797,
      "Ġter": 1798,
      "Ġexcept": 1799,
      "IT": 1800,
      "serv": 1801,
      "ĠĠĠĠĠĠĠĠĠĠĠĠĠĠĠĠĠĠĠĠĠĠĠ": 1802,
      "17": 1803,
      "Ġbenef": 1804,
      "âĢĶ": 1805,
      "dis": 1806,
      "Ġpath": 1807,
      "Ġgovern": 1808,
      "inst": 1809,
      "EN": 1810,
      "uture": 1811,
      "Ġcond": 1812,
      "user": 1813,
      "init": 1814,
      "reg": 1815,
      "ills": 1816,
      "Ġdid": 1817,
      "Ġreport": 1818,
      "met": 1819,
      "Ġlast": 1820,
      "Ġ__": 1821,
      "Ġassert": 1822,
      "ĠBut": 1823,
      "Ġuser": 1824,
      "ailable": 1825,
      "olution": 1826,
      "ĠBy": 1827,
      "atures": 1828,
      "ocus": 1829,
      "use": 1830,
      "ĠUnited": 1831,
      "Ġfr": 1832,
      "ways": 1833,
      "ording": 1834,
      "Ġ16": 1835,
      "Ġmaking": 1836,
      "Ġcost": 1837,
      "Ġhome": 1838,
      "Ġbas": 1839,
      "Ġvalues": 1840,
      "22": 1841,
      "Ã©": 1842,
      "verse": 1843,
      "Ġlab": 1844,
      "rop": 1845,
      "cont": 1846,
      "ication": 1847,
      "urther": 1848,
      "ograph": 1849,
      "atural": 1850,
      "Ġthough": 1851,
      "Ġbetter": 1852,
      "med": 1853,
      "mp": 1854,
      "Ġspace": 1855,
      "db": 1856,
      "ploy": 1857,
      "ĠTrue": 1858,
      "vert": 1859,
      "Ġsocial": 1860,
      "util": 1861,
      "Ġagainst": 1862,
      "Ġcheck": 1863,
      "esc": 1864,
      "Ġtool": 1865,
      "ane": 1866,
      "ID": 1867,
      "Ġinterest": 1868,
      "Ġparticular": 1869,
      "Ġ17": 1870,
      "imal": 1871,
      "Ġexpect": 1872,
      "Ġenc": 1873,
      "Ġlocal": 1874,
      "Ġopp": 1875,
      "ĠCol": 1876,
      "ators": 1877,
      "aster": 1878,
      "essage": 1879,
      "Ġdue": 1880,
      "Ġlaw": 1881,
      "Ġtri": 1882,
      "Ġleg": 1883,
      "ients": 1884,
      "Ġdise": 1885,
      "Ġseveral": 1886,
      "cial": 1887,
      "Ġsit": 1888,
      "over": 1889,
      "}\\": 1890,
      "Ġanother": 1891,
      "ring": 1892,
      "ently": 1893,
      "Ġkeep": 1894,
      "ths": 1895,
      "Ġpossible": 1896,
      "ĠSo": 1897,
      "Ġrole": 1898,
      "Ġair": 1899,
      "Ġstep": 1900,
      "load": 1901,
      "ards": 1902,
      "ogn": 1903,
      "Ġchall": 1904,
      "ention": 1905,
      "Ġbook": 1906,
      "ological": 1907,
      "ĠTo": 1908,
      "ories": 1909,
      "ele": 1910,
      "rict": 1911,
      "Ġcomput": 1912,
      "21": 1913,
      "ysis": 1914,
      "Ġ198": 1915,
      "ww": 1916,
      "Ġsince": 1917,
      "Ġsl": 1918,
      "ĠĠĠĠĠĠĠĠĠĠĠĠĠĠĠĠĠĠĠĠĠĠĠĠ": 1919,
      "une": 1920,
      "ended": 1921,
      "left": 1922,
      "Ġconsider": 1923,
      "append": 1924,
      "ilar": 1925,
      "Ġinit": 1926,
      "inks": 1927,
      "ling": 1928,
      "Ġmove": 1929,
      "ref": 1930,
      "Ġfew": 1931,
      "bo": 1932,
      "].": 1933,
      "Ġ('": 1934,
      "Ġrece": 1935,
      "###": 1936,
      "ctions": 1937,
      "Ġlearn": 1938,
      "action": 1939,
      "ĠSp": 1940,
      "oin": 1941,
      "ĠOr": 1942,
      "ored": 1943,
      "let": 1944,
      "Ġrisk": 1945,
      "rel": 1946,
      "ides": 1947,
      "hers": 1948,
      "Ġhig": 1949,
      "Ġlow": 1950,
      "itor": 1951,
      "ript": 1952,
      "Ġcaus": 1953,
      "ession": 1954,
      "cle": 1955,
      "Ġrepresent": 1956,
      "Ġsuccess": 1957,
      "obal": 1958,
      "Ġgreat": 1959,
      "AS": 1960,
      "Ġmeans": 1961,
      "\".": 1962,
      "cer": 1963,
      "rm": 1964,
      "mber": 1965,
      "âĪ": 1966,
      "resp": 1967,
      "Ġperiod": 1968,
      "ised": 1969,
      "ends": 1970,
      "Ġassoci": 1971,
      "yd": 1972,
      "Ġfamily": 1973,
      "rix": 1974,
      "gen": 1975,
      "Ġsize": 1976,
      "Ġdri": 1977,
      "af": 1978,
      "ĠFr": 1979,
      "Ġfoot": 1980,
      "Ġbo": 1981,
      "ĠĠĠĠĠĠ": 1982,
      "Ġindust": 1983,
      "Ġcomb": 1984,
      "Ġview": 1985,
      "Ġtre": 1986,
      "ystem": 1987,
      "ajor": 1988,
      "Ġprevent": 1989,
      "ĠFalse": 1990,
      "Ġsum": 1991,
      "rect": 1992,
      "acy": 1993,
      "03": 1994,
      "Ġos": 1995,
      "AN": 1996,
      "ey": 1997,
      "ending": 1998,
      "Ġinvest": 1999,
      "Ġ`": 2000,
      "Ġessential": 2001,
      "itle": 2002,
      "vious": 2003,
      "Ġbecome": 2004,
      "utions": 2005,
      "mit": 2006,
      "Ġconditions": 2007,
      "eb": 2008,
      "========": 2009,
      "Ġfocus": 2010,
      "Ġnetwork": 2011,
      "Ġcontain": 2012,
      "Ġunt": 2013,
      "ĠWhen": 2014,
      "Ġfac": 2015,
      "Ġcrit": 2016,
      "Ġcomplex": 2017,
      "ml": 2018,
      "Ġavailable": 2019,
      "Ġteam": 2020,
      "place": 2021,
      "Ġrad": 2022,
      "Ġlater": 2023,
      "osed": 2024,
      "dir": 2025,
      "Ġdeterm": 2026,
      "Ġpain": 2027,
      "Ġold": 2028,
      "ĠStates": 2029,
      "Ġfour": 2030,
      "################": 2031,
      "},": 2032,
      "work": 2033,
      "24": 2034,
      "ification": 2035,
      "Ġconnect": 2036,
      "Ġ{'": 2037,
      "Ġeconom": 2038,
      "Ġcode": 2039,
      "Ġbusiness": 2040,
      "[\"": 2041,
      "ilities": 2042,
      "Ġimprove": 2043,
      "ĠTe": 2044,
      "lection": 2045,
      "arc": 2046,
      "ĠCan": 2047,
      "If": 2048,
      "ights": 2049,
      "What": 2050,
      "Ġflow": 2051,
      "As": 2052,
      "ging": 2053,
      "Ġearly": 2054,
      ".\"": 2055,
      "AL": 2056,
      "23": 2057,
      "org": 2058,
      "Ġestab": 2059,
      "aper": 2060,
      "Ġcalcul": 2061,
      "idd": 2062,
      "plement": 2063,
      "ctor": 2064,
      "Equal": 2065,
      "Ġ14": 2066,
      "Ġdoc": 2067,
      "iple": 2068,
      "Ġdig": 2069,
      "istic": 2070,
      "ttp": 2071,
      "Ġcy": 2072,
      "ternational": 2073,
      "ians": 2074,
      "Ġevent": 2075,
      "amples": 2076,
      "Ġbro": 2077,
      "Ġtimes": 2078,
      "num": 2079,
      "ler": 2080,
      "Ġsingle": 2081,
      "ivity": 2082,
      "Ġcharacter": 2083,
      "Ġmeasure": 2084,
      "An": 2085,
      "amb": 2086,
      "ither": 2087,
      "Ġhistory": 2088,
      "ormal": 2089,
      "Ġexist": 2090,
      "plic": 2091,
      "apt": 2092,
      "Ġcr": 2093,
      "Ġmax": 2094,
      "opt": 2095,
      "Ġtemper": 2096,
      "Ġtechnology": 2097,
      "Ġeffic": 2098,
      "Ġant": 2099,
      "Ġaffect": 2100,
      "Ġoutput": 2101,
      "Ġoccur": 2102,
      "Ġ197": 2103,
      "wards": 2104,
      "Ġneeds": 2105,
      "Ġwar": 2106,
      "format": 2107,
      "Ġalong": 2108,
      "Ġrequire": 2109,
      ",âĢĿ": 2110,
      "ĠâĢĺ": 2111,
      "rist": 2112,
      "Ġbi": 2113,
      "Com": 2114,
      "ourn": 2115,
      "asing": 2116,
      "ĠAt": 2117,
      "Ġansw": 2118,
      "Ġtoo": 2119,
      "Ġnatural": 2120,
      "ires": 2121,
      "Ġbehav": 2122,
      "Ġfree": 2123,
      "object": 2124,
      "Ġfuture": 2125,
      "ae": 2126,
      "Ġexperience": 2127,
      "Ġabove": 2128,
      "info": 2129,
      "izing": 2130,
      "Ġmen": 2131,
      "config": 2132,
      "We": 2133,
      "ises": 2134,
      "ĠAll": 2135,
      "Ġproblems": 2136,
      "Ġlet": 2137,
      "Ġresponse": 2138,
      "Ġareas": 2139,
      "Ġshort": 2140,
      "ties": 2141,
      "Ġ13": 2142,
      "Ġsource": 2143,
      "ones": 2144,
      "SE": 2145,
      "Ġlanguage": 2146,
      "RE": 2147,
      "Ġsw": 2148,
      "Ġplayers": 2149,
      "Ġpress": 2150,
      "Ġdat": 2151,
      "ieve": 2152,
      "ribute": 2153,
      "Ġgeneral": 2154,
      "rad": 2155,
      "Ġaddress": 2156,
      "my": 2157,
      "Ġbeg": 2158,
      "ĠBl": 2159,
      "Ġmov": 2160,
      "Ġturn": 2161,
      "Ġfeel": 2162,
      "ustom": 2163,
      "Ġensure": 2164,
      "LE": 2165,
      "ription": 2166,
      "ush": 2167,
      "bol": 2168,
      "Ġnear": 2169,
      "():": 2170,
      "Ġmodels": 2171,
      "To": 2172,
      "ibility": 2173,
      "ream": 2174,
      "Ġnext": 2175,
      "aps": 2176,
      "oor": 2177,
      "Ġterm": 2178,
      "Ġraise": 2179,
      "roups": 2180,
      "Ġfore": 2181,
      "ands": 2182,
      "Ġrequest": 2183,
      "40": 2184,
      "sub": 2185,
      "dd": 2186,
      "Ġuntil": 2187,
      "Ġmot": 2188,
      "roll": 2189,
      "Ġdescrib": 2190,
      "::": 2191,
      "ope": 2192,
      "Ġwomen": 2193,
      "Ġspecies": 2194,
      "__(": 2195,
      "Ġleft": 2196,
      "Ġprob": 2197,
      "For": 2198,
      "ĠNational": 2199,
      "Ġchanges": 2200,
      "ails": 2201,
      "Ġquestion": 2202,
      "How": 2203,
      "Ġtot": 2204,
      "ilt": 2205,
      "''": 2206,
      "ruction": 2207,
      "60": 2208,
      "idence": 2209,
      "ips": 2210,
      "Ġlarg": 2211,
      "ĠBe": 2212,
      "Ġcause": 2213,
      "Ġapproach": 2214,
      "ilit": 2215,
      "illion": 2216,
      "rec": 2217,
      "ibr": 2218,
      "Ġmajor": 2219,
      "Ġable": 2220,
      "IC": 2221,
      "ai": 2222,
      "rag": 2223,
      "Ġcertain": 2224,
      "ĠâĢĶ": 2225,
      "Ġlevels": 2226,
      "ftware": 2227,
      "Ġhapp": 2228,
      "Ġlik": 2229,
      "Ġhard": 2230,
      "Ġspecial": 2231,
      "assertEqual": 2232,
      "False": 2233,
      "osp": 2234,
      "ister": 2235,
      "Ġtypes": 2236,
      "rodu": 2237,
      "indow": 2238,
      "Re": 2239,
      "ĠWhat": 2240,
      "Ġprotect": 2241,
      "fact": 2242,
      "Ġdem": 2243,
      "ek": 2244,
      "Con": 2245,
      "ober": 2246,
      "Ġtreatment": 2247,
      "ortun": 2248,
      "Ġversion": 2249,
      "Ġplant": 2250,
      "ero": 2251,
      "Ġsay": 2252,
      "anced": 2253,
      "Ġamount": 2254,
      "Field": 2255,
      "âĢľ": 2256,
      "Ġunderstanding": 2257,
      "Ġinput": 2258,
      "Ġmaintain": 2259,
      "ohn": 2260,
      "atter": 2261,
      "Ġconsum": 2262,
      "ribution": 2263,
      "size": 2264,
      "64": 2265,
      "verage": 2266,
      "thon": 2267,
      "icro": 2268,
      "ĠMay": 2269,
      "Ġnecess": 2270,
      "32": 2271,
      "Ġacross": 2272,
      "andom": 2273,
      "bu": 2274,
      "Ġnp": 2275,
      "Ġothers": 2276,
      "99": 2277,
      "Ġside": 2278,
      "olume": 2279,
      "erc": 2280,
      "plit": 2281,
      "aut": 2282,
      "Ġgovernment": 2283,
      "Ġlinks": 2284,
      "Ġcommunity": 2285,
      "Ġcru": 2286,
      "Ġamong": 2287,
      "Ġseries": 2288,
      "ze": 2289,
      "Ġsens": 2290,
      "inter": 2291,
      "ĠQu": 2292,
      "odes": 2293,
      "Ġindividuals": 2294,
      "Ġmar": 2295,
      "ething": 2296,
      "ĠCal": 2297,
      "ours": 2298,
      "print": 2299,
      "Ġ11": 2300,
      "Ġsimilar": 2301,
      "count": 2302,
      "Ġes": 2303,
      "Ġchalleng": 2304,
      "max": 2305,
      "Wh": 2306,
      "Ġrelations": 2307,
      "ley": 2308,
      "Ġaccount": 2309,
      "Ġpoints": 2310,
      "etic": 2311,
      "epend": 2312,
      "Ġparent": 2313,
      "Ġlay": 2314,
      "ĠAI": 2315,
      "ception": 2316,
      "ĠEuro": 2317,
      "atory": 2318,
      "Ġport": 2319,
      "oph": 2320,
      "Ġalways": 2321,
      "AC": 2322,
      "omething": 2323,
      "On": 2324,
      "Ġfull": 2325,
      "Ġdefault": 2326,
      "Ġpub": 2327,
      "Ġcontent": 2328,
      "ledge": 2329,
      "ĠIm": 2330,
      "ott": 2331,
      "enc": 2332,
      "Ġcirc": 2333,
      "Ġpolit": 2334,
      "Al": 2335,
      "ĠWorld": 2336,
      "ably": 2337,
      "Ġsuper": 2338,
      "Ġblood": 2339,
      "ĠEn": 2340,
      "Ġquality": 2341,
      "Ġ30": 2342,
      "new": 2343,
      "Ġclear": 2344,
      "ival": 2345,
      "ango": 2346,
      "Ġstrong": 2347,
      "ĠWith": 2348,
      "Cl": 2349,
      "stit": 2350,
      "upp": 2351,
      "icult": 2352,
      "Ġreduce": 2353,
      "Ġproduction": 2354,
      "Ġhigher": 2355,
      "bb": 2356,
      "ĠMar": 2357,
      "Ġthings": 2358,
      "ĠShe": 2359,
      "Ġdom": 2360,
      "Ġcontext": 2361,
      "ĠReg": 2362,
      "Ġrespons": 2363,
      "Ġenh": 2364,
      "Ġrequired": 2365,
      "iting": 2366,
      "'),": 2367,
      "lex": 2368,
      "now": 2369,
      "fer": 2370,
      "ache": 2371,
      "part": 2372,
      "\"]": 2373,
      "Ġparamet": 2374,
      "tings": 2375,
      "Ġcontinu": 2376,
      "head": 2377,
      "Ġlen": 2378,
      "Ġimage": 2379,
      "Ġissues": 2380,
      "Ġstructure": 2381,
      "Ġmass": 2382,
      "Ġdeath": 2383,
      "ung": 2384,
      "ĠMan": 2385,
      "à¤": 2386,
      "Ġtarget": 2387,
      "Ġdiscuss": 2388,
      "ĠCont": 2389,
      "Ġrecord": 2390,
      "rt": 2391,
      "icense": 2392,
      "ĠUS": 2393,
      "Ġach": 2394,
      "gor": 2395,
      "ĠCent": 2396,
      "ipp": 2397,
      "Ġfurther": 2398,
      "Ġworking": 2399,
      "inary": 2400,
      "Ġfrequ": 2401,
      "Ġinstance": 2402,
      "Ġdeg": 2403,
      "len": 2404,
      "ĠWar": 2405,
      "Ġeducation": 2406,
      "iation": 2407,
      "iver": 2408,
      "side": 2409,
      "ĠCar": 2410,
      "index": 2411,
      "Ġworks": 2412,
      "Ġincrease": 2413,
      "____": 2414,
      "Ġphysical": 2415,
      "ĠPar": 2416,
      "Ġconfig": 2417,
      "Ġinflu": 2418,
      "})": 2419,
      "AM": 2420,
      "Ġprim": 2421,
      "Ġneg": 2422,
      "Ġtotal": 2423,
      "ules": 2424,
      "state": 2425,
      "Ġanalysis": 2426,
      "Ġ25": 2427,
      "Ġcourse": 2428,
      "Ġdisease": 2429,
      "Ġmethods": 2430,
      "Ġgrowth": 2431,
      "Ġage": 2432,
      "imum": 2433,
      "Ġindic": 2434,
      "Ġput": 2435,
      "Ġcome": 2436,
      "([": 2437,
      "Ġsimple": 2438,
      "Ġloss": 2439,
      "wargs": 2440,
      "comp": 2441,
      "clus": 2442,
      "though": 2443,
      "ready": 2444,
      "uments": 2445,
      "icy": 2446,
      "Ġ100": 2447,
      "jango": 2448,
      "ĠGo": 2449,
      "Ġauthor": 2450,
      "ches": 2451,
      "Ġcompon": 2452,
      "ditional": 2453,
      "Ġperformance": 2454,
      "Ġlower": 2455,
      "ales": 2456,
      "da": 2457,
      "Ġ2009": 2458,
      "pecially": 2459,
      "eral": 2460,
      "curity": 2461,
      "Ġimplement": 2462,
      "Ġconc": 2463,
      "Ġsomething": 2464,
      "ĠComm": 2465,
      "Ġwhy": 2466,
      "Ġobserv": 2467,
      "order": 2468,
      "raft": 2469,
      "chan": 2470,
      "Ġgre": 2471,
      "Ġeither": 2472,
      "aring": 2473,
      "Ġgame": 2474,
      "ĠAf": 2475,
      "Ġgive": 2476,
      "Ġsugg": 2477,
      "Ġsuggest": 2478,
      "ney": 2479,
      "Ġdam": 2480,
      "Ġseason": 2481,
      "amed": 2482,
      "instance": 2483,
      "Ġsure": 2484,
      "ension": 2485,
      "gorith": 2486,
      "ĠEurope": 2487,
      "Ġrate": 2488,
      "Ġabs": 2489,
      "Ġaction": 2490,
      "fl": 2491,
      "Ġengine": 2492,
      "Ġtoget": 2493,
      "me": 2494,
      "Ġtogether": 2495,
      "aves": 2496,
      "aging": 2497,
      "hemat": 2498,
      "Ġpack": 2499,
      "ising": 2500,
      "run": 2501,
      "UT": 2502,
      "Ġbuilding": 2503,
      "Ġsolution": 2504,
      "Ġcrucial": 2505,
      "Ġterms": 2506,
      "Ġprofess": 2507,
      "param": 2508,
      "Ġbecame": 2509,
      "word": 2510,
      "Ġcountry": 2511,
      "Ġmakes": 2512,
      "Ġemploy": 2513,
      "ĠGe": 2514,
      "Ġremain": 2515,
      "Ġge": 2516,
      "Ġleast": 2517,
      "Ġmanagement": 2518,
      "Ġmach": 2519,
      "dom": 2520,
      "Ġwhether": 2521,
      "ming": 2522,
      "ĠAss": 2523,
      "ops": 2524,
      "start": 2525,
      "leep": 2526,
      "loc": 2527,
      "irt": 2528,
      "Res": 2529,
      "Ġnumbers": 2530,
      "aken": 2531,
      "point": 2532,
      "fun": 2533,
      "ĠPr": 2534,
      "Ġmarket": 2535,
      "DE": 2536,
      "Ġann": 2537,
      "ison": 2538,
      "Ġtraining": 2539,
      "empt": 2540,
      "Ġunique": 2541,
      "uation": 2542,
      "Ġselect": 2543,
      "ev": 2544,
      "Un": 2545,
      "lying": 2546,
      "Ġdifficult": 2547,
      "Ġbelow": 2548,
      "ges": 2549,
      "ump": 2550,
      "ĠBrit": 2551,
      "Ġresources": 2552,
      "ĠAust": 2553,
      "Ġfund": 2554,
      "Ġeffective": 2555,
      "Ġglobal": 2556,
      "Ġgraph": 2557,
      "mb": 2558,
      "Ġservice": 2559,
      "thing": 2560,
      "ĠMed": 2561,
      "Ġfootball": 2562,
      "Ġpersonal": 2563,
      "eds": 2564,
      "Ġcases": 2565,
      "Ġregular": 2566,
      "Ġmaterials": 2567,
      "Ġskills": 2568,
      "Ġ[]": 2569,
      "array": 2570,
      "Ġposition": 2571,
      "tra": 2572,
      "ĠGerm": 2573,
      "go": 2574,
      "ĠPol": 2575,
      "Ġespecially": 2576,
      "Ġfar": 2577,
      ")$": 2578,
      "ude": 2579,
      "Ġalready": 2580,
      "ĠJohn": 2581,
      "Ġsust": 2582,
      "Ġimm": 2583,
      "Ġdr": 2584,
      ".__": 2585,
      "Ġfail": 2586,
      "Ġfunctions": 2587,
      "return": 2588,
      "Ġways": 2589,
      "ĠGu": 2590,
      "Ġquant": 2591,
      "Ġerror": 2592,
      "Ġlot": 2593,
      "Ġhaving": 2594,
      "ĠOne": 2595,
      "45": 2596,
      "yl": 2597,
      "aries": 2598,
      "Ġpositive": 2599,
      "Ġbir": 2600,
      "Ġexpected": 2601,
      "There": 2602,
      "ynam": 2603,
      "Ġeffects": 2604,
      "ournal": 2605,
      "oring": 2606,
      "off": 2607,
      "Ġhelps": 2608,
      "Ġred": 2609,
      "ĠApp": 2610,
      "ĠJan": 2611,
      "Ġservices": 2612,
      "models": 2613,
      "RO": 2614,
      "Ġarch": 2615,
      "Ġmusic": 2616,
      "Ġprevious": 2617,
      "nection": 2618,
      "hold": 2619,
      "Ġbreak": 2620,
      "80": 2621,
      "ĠGener": 2622,
      "ĠChrist": 2623,
      "Ġassociated": 2624,
      "ĠCount": 2625,
      "Ġproducts": 2626,
      "rs": 2627,
      "Ġdays": 2628,
      "oney": 2629,
      "Ġsustain": 2630,
      "Ġcorrect": 2631,
      "ptoms": 2632,
      "Ġfactors": 2633,
      "Ġscient": 2634,
      "ename": 2635,
      "(\\": 2636,
      "Ġcompany": 2637,
      "ĠNo": 2638,
      "Ġrespect": 2639,
      "Ġcommand": 2640,
      "Ġpaper": 2641,
      "Ġpay": 2642,
      "alf": 2643,
      "Ġur": 2644,
      "aim": 2645,
      "wh": 2646,
      "Ġrecogn": 2647,
      "Ġexc": 2648,
      "rap": 2649,
      "istics": 2650,
      "Ġprovides": 2651,
      "Ġnut": 2652,
      "bon": 2653,
      "ociety": 2654,
      "Ġcompet": 2655,
      "comes": 2656,
      "Ġstandard": 2657,
      "Ġcollect": 2658,
      "Ġclean": 2659,
      "Ġhold": 2660,
      "Ġlength": 2661,
      "nov": 2662,
      "ĠAug": 2663,
      "Ġknowledge": 2664,
      "Ġgroups": 2665,
      "Ġsurface": 2666,
      "ift": 2667,
      "ĠInt": 2668,
      "Ġcreated": 2669,
      "Ġmind": 2670,
      "Ġ+=": 2671,
      "sum": 2672,
      "ula": 2673,
      "ags": 2674,
      "Ġbal": 2675,
      "group": 2676,
      "Ġsqu": 2677,
      "Ġyoung": 2678,
      "Ġbase": 2679,
      "ideo": 2680,
      "Ġelif": 2681,
      "'],": 2682,
      "pri": 2683,
      "Ġactivities": 2684,
      "ief": 2685,
      "Ġbound": 2686,
      "based": 2687,
      "Ġchem": 2688,
      "ED": 2689,
      "ĠYork": 2690,
      "****": 2691,
      "Ġvol": 2692,
      "eta": 2693,
      "sequ": 2694,
      "Ġrelationship": 2695,
      "Ġexperien": 2696,
      "code": 2697,
      "Ġpopulation": 2698,
      "oman": 2699,
      "Ġbegin": 2700,
      "Ġlikely": 2701,
      "Ġpattern": 2702,
      "Ġill": 2703,
      "Ġintrodu": 2704,
      "aced": 2705,
      "urch": 2706,
      "alue": 2707,
      "Ġjob": 2708,
      "Ġoption": 2709,
      "Ġblock": 2710,
      "IS": 2711,
      "External": 2712,
      "Ġavoid": 2713,
      "Ġstress": 2714,
      "join": 2715,
      "Type": 2716,
      "ĠSouth": 2717,
      "ĠÂ": 2718,
      "Ġtemperature": 2719,
      "ĠOct": 2720,
      "most": 2721,
      "Ġweight": 2722,
      "mat": 2723,
      "Ġheart": 2724,
      "ancial": 2725,
      "Test": 2726,
      "Ġdeb": 2727,
      "28": 2728,
      "ttps": 2729,
      "ged": 2730,
      "0000": 2731,
      "Ġask": 2732,
      "Ġmembers": 2733,
      "Ġconcept": 2734,
      "Ġbenefits": 2735,
      "Ġdone": 2736,
      "Ġarticle": 2737,
      "Name": 2738,
      "Ġpast": 2739,
      "Ġconsid": 2740,
      "iles": 2741,
      "request": 2742,
      "gs": 2743,
      "27": 2744,
      "When": 2745,
      "Ġcustom": 2746,
      "hern": 2747,
      "earch": 2748,
      "aff": 2749,
      "Ġcondition": 2750,
      "65": 2751,
      "lor": 2752,
      "Ġtrue": 2753,
      "Ġ24": 2754,
      "Ġallows": 2755,
      "Ġanswer": 2756,
      "Ġusually": 2757,
      "List": 2758,
      "fields": 2759,
      "ites": 2760,
      "Ġcolor": 2761,
      "Ġflu": 2762,
      "Ġsubject": 2763,
      "Ġdest": 2764,
      "ixed": 2765,
      "Ġreason": 2766,
      "igure": 2767,
      "33": 2768,
      "Ġtable": 2769,
      "bum": 2770,
      "enn": 2771,
      "sy": 2772,
      "Ġrelated": 2773,
      "Ġang": 2774,
      "Ġoffic": 2775,
      "emic": 2776,
      "Ġtoday": 2777,
      "Ġgoing": 2778,
      "with": 2779,
      "29": 2780,
      "sing": 2781,
      "ague": 2782,
      "ION": 2783,
      "ET": 2784,
      "Ġlittle": 2785,
      "ene": 2786,
      "default": 2787,
      "ĠĠĠĠĠĠĠĠĠ": 2788,
      "ĠSome": 2789,
      "ences": 2790,
      "ĠAfric": 2791,
      "astic": 2792,
      "reng": 2793,
      "Ġ...": 2794,
      "cal": 2795,
      ");": 2796,
      "Ġelements": 2797,
      "Ġcells": 2798,
      "Ġ**": 2799,
      "Ġkind": 2800,
      "istance": 2801,
      "call": 2802,
      "Ġability": 2803,
      "ĠSchool": 2804,
      "Ġalgorith": 2805,
      "su": 2806,
      "Ġsoftware": 2807,
      "Ġenough": 2808,
      "Ġplants": 2809,
      "eter": 2810,
      "Ġmultiple": 2811,
      "ĠMe": 2812,
      "pi": 2813,
      "ground": 2814,
      "Ġwid": 2815,
      "Ġnecessary": 2816,
      "Ġpredict": 2817,
      "Ġparticip": 2818,
      "elling": 2819,
      "Ġground": 2820,
      "Ġey": 2821,
      "Ġonline": 2822,
      "Ġlink": 2823,
      "Ġindex": 2824,
      "Ġder": 2825,
      "light": 2826,
      "Ġcity": 2827,
      "Ġstring": 2828,
      "Ġoptions": 2829,
      "pre": 2830,
      "Ġ--": 2831,
      "Ġopportun": 2832,
      "uration": 2833,
      "iment": 2834,
      "Ġtools": 2835,
      "iter": 2836,
      "Ġhouse": 2837,
      "Ġphot": 2838,
      "Ġobtain": 2839,
      "Ġprec": 2840,
      "Ġcut": 2841,
      "Ġhost": 2842,
      "Ġ$$\\": 2843,
      "Ġbig": 2844,
      "rig": 2845,
      "Ġpressure": 2846,
      "Ġtrack": 2847,
      "AP": 2848,
      "())": 2849,
      "iency": 2850,
      "ports": 2851,
      "ĠEar": 2852,
      "Ġdocument": 2853,
      "Ġoriginal": 2854,
      "Ġoverall": 2855,
      "aching": 2856,
      "Ġquick": 2857,
      "Ġver": 2858,
      ">>": 2859,
      "create": 2860,
      "iate": 2861,
      "Ġfilm": 2862,
      "ĠState": 2863,
      "actions": 2864,
      "valid": 2865,
      "Ġfri": 2866,
      "Ġpriv": 2867,
      "Ġpercent": 2868,
      "ĠThat": 2869,
      "eturn": 2870,
      "ĠJu": 2871,
      "Ġquestions": 2872,
      "Ġwords": 2873,
      "Ġsymptoms": 2874,
      "Ġaway": 2875,
      "Ġbuilt": 2876,
      "bra": 2877,
      "35": 2878,
      "uel": 2879,
      "eed": 2880,
      "ured": 2881,
      "lim": 2882,
      "Ġsite": 2883,
      "lege": 2884,
      "Ġcontinue": 2885,
      "Ġ{}": 2886,
      "Ġla": 2887,
      "Ġfeatures": 2888,
      "style": 2889,
      "ĠEnglish": 2890,
      "Ġconsidered": 2891,
      "Ġpers": 2892,
      "Ġmedical": 2893,
      "Ġsent": 2894,
      "Ġpy": 2895,
      "Ġevents": 2896,
      "Ġequation": 2897,
      "Ġpage": 2898,
      "uary": 2899,
      "Ġ2010": 2900,
      "Ġneeded": 2901,
      "Ġregion": 2902,
      "iques": 2903,
      "write": 2904,
      "sq": 2905,
      "ĠLicense": 2906,
      "Ġmeet": 2907,
      "Ġaccur": 2908,
      "Ġconsist": 2909,
      "Ġeffort": 2910,
      "aches": 2911,
      "You": 2912,
      "26": 2913,
      "augh": 2914,
      "na": 2915,
      "34": 2916,
      "Ġmatch": 2917,
      "Ġfinal": 2918,
      "Ġpractice": 2919,
      "rate": 2920,
      "Ġparts": 2921,
      "atives": 2922,
      "Ġreally": 2923,
      "Ġsepar": 2924,
      "Ġcentury": 2925,
      "Ġanaly": 2926,
      "ography": 2927,
      "Ġrecomm": 2928,
      "ĠNorth": 2929,
      "ĠAfter": 2930,
      "Ġapplications": 2931,
      "Ġappear": 2932,
      "ĠCo": 2933,
      "Ġpopular": 2934,
      "Ġ50": 2935,
      "Ġindustry": 2936,
      "Ġcannot": 2937,
      "oud": 2938,
      "Ġpublished": 2939,
      "ĠWhile": 2940,
      "Ġtheory": 2941,
      "Ġep": 2942,
      "Ġseen": 2943,
      "Ġax": 2944,
      "199": 2945,
      "rid": 2946,
      "Ġnature": 2947,
      "hest": 2948,
      "xy": 2949,
      "Ġlimit": 2950,
      "amm": 2951,
      "Ġ!": 2952,
      "Ġmechan": 2953,
      "ched": 2954,
      "eration": 2955,
      "Ġfiles": 2956,
      "Ġsat": 2957,
      "CO": 2958,
      "Ġsecurity": 2959,
      "Ġrather": 2960,
      "ĠApr": 2961,
      "Ġsafety": 2962,
      "Ġattack": 2963,
      "ĠAm": 2964,
      "ufact": 2965,
      "Ġassum": 2966,
      "Ġdict": 2967,
      "Ġheat": 2968,
      "Ġnever": 2969,
      "Ġoffer": 2970,
      "cd": 2971,
      "ores": 2972,
      "Ġsense": 2973,
      "ĠMat": 2974,
      "$.": 2975,
      "md": 2976,
      "Ġdiv": 2977,
      "ĠDis": 2978,
      "Ġhealthy": 2979,
      "ĠĠĠĠĊ": 2980,
      "ĠGod": 2981,
      "oration": 2982,
      "Ġsequ": 2983,
      "Ġidentify": 2984,
      "atform": 2985,
      "Ġstates": 2986,
      "39": 2987,
      "istory": 2988,
      "Ġinstall": 2989,
      "ults": 2990,
      "status": 2991,
      "ĠMin": 2992,
      "issions": 2993,
      "Ġhowever": 2994,
      "angle": 2995,
      "aling": 2996,
      "Ġcountries": 2997,
      "Ġincreasing": 2998,
      "Ġchallenges": 2999,
      "ptember": 3000,
      "Ġshown": 3001,
      "Ġexpress": 3002,
      "plate": 3003,
      "like": 3004,
      "Ġsound": 3005,
      "Ġbrain": 3006,
      "Ġcomes": 3007,
      "lease": 3008,
      "Ã¡": 3009,
      "Ġproperties": 3010,
      "Ġprovided": 3011,
      "Ġactivity": 3012,
      "cos": 3013,
      "Ġ194": 3014,
      "CT": 3015,
      "Ġmatrix": 3016,
      "Ġhistor": 3017,
      "pose": 3018,
      "Ġshows": 3019,
      "}$$": 3020,
      "Ġonce": 3021,
      "Ġclimate": 3022,
      "Ġrow": 3023,
      "Ġfall": 3024,
      "Ġeval": 3025,
      "ulations": 3026,
      "Ġfeed": 3027,
      "oad": 3028,
      "ĠDo": 3029,
      "Ġelement": 3030,
      "Ġmodern": 3031,
      "Ġenvironmental": 3032,
      "Ġstory": 3033,
      "ried": 3034,
      "ĠÂł": 3035,
      "asc": 3036,
      "Ġdistribution": 3037,
      "Ġautom": 3038,
      "ypes": 3039,
      "Ġnormal": 3040,
      "Ġemot": 3041,
      "Ġwin": 3042,
      "method": 3043,
      "Ġload": 3044,
      "Ġstreng": 3045,
      "Ġdesigned": 3046,
      "nown": 3047,
      "elves": 3048,
      "Ġforce": 3049,
      "Ġmillion": 3050,
      "Ġdog": 3051,
      "Ġbehavior": 3052,
      "100": 3053,
      "isions": 3054,
      "ament": 3055,
      "Ġmagn": 3056,
      "Ġsays": 3057,
      "ada": 3058,
      "AB": 3059,
      "Ġrev": 3060,
      "Ġstrateg": 3061,
      "iol": 3062,
      "ĠII": 3063,
      "otes": 3064,
      "ĠStud": 3065,
      "no": 3066,
      "Ġconcern": 3067,
      "Ġsoil": 3068,
      "Ġdeep": 3069,
      "Ġfive": 3070,
      "ĠĠĠĠĠĠĠĠĠĠĠĠĠĠĠĠĠĠĠĠĠĠĠĠĠĠĠ": 3071,
      "ius": 3072,
      "Ġuses": 3073,
      "Ġfinancial": 3074,
      "Ġdim": 3075,
      "ĠPer": 3076,
      "icles": 3077,
      "orpor": 3078,
      "pha": 3079,
      "tml": 3080,
      "ambda": 3081,
      "67": 3082,
      "Ġleading": 3083,
      "context": 3084,
      "Ġprinc": 3085,
      "where": 3086,
      "ply": 3087,
      "ĠCO": 3088,
      "Ġemer": 3089,
      "lt": 3090,
      "dat": 3091,
      "Ġcompan": 3092,
      "Ġframe": 3093,
      "active": 3094,
      "bit": 3095,
      "umn": 3096,
      "xf": 3097,
      "rast": 3098,
      "string": 3099,
      "Cont": 3100,
      "ĠTra": 3101,
      "ĠPart": 3102,
      "ĠAugust": 3103,
      "Ġdraw": 3104,
      "ender": 3105,
      "Ġ195": 3106,
      "(),": 3107,
      "illed": 3108,
      "Ġconduct": 3109,
      "arr": 3110,
      "etime": 3111,
      "Ġstudies": 3112,
      "Ġnational": 3113,
      "Ġsolutions": 3114,
      "ino": 3115,
      "He": 3116,
      "Ġlines": 3117,
      "Ġrout": 3118,
      "Ġsix": 3119,
      "Ġscience": 3120,
      "37": 3121,
      "Ġstat": 3122,
      "Ġwrite": 3123,
      "Ġincludes": 3124,
      "Ġexerc": 3125,
      "Ġcritical": 3126,
      "Ġcapt": 3127,
      "Ġassess": 3128,
      "Ġunit": 3129,
      "check": 3130,
      "ĠHealth": 3131,
      "just": 3132,
      "iddle": 3133,
      "ĠComp": 3134,
      "Ġdiet": 3135,
      "Sh": 3136,
      "ributed": 3137,
      "Ġbar": 3138,
      "Ġsymbol": 3139,
      "ait": 3140,
      "Ġwebs": 3141,
      "kwargs": 3142,
      "tem": 3143,
      "ĠAb": 3144,
      "'.": 3145,
      "Ġmicro": 3146,
      "UR": 3147,
      "Ġdeveloped": 3148,
      "Ġword": 3149,
      "ese": 3150,
      "Im": 3151,
      "amin": 3152,
      "display": 3153,
      "ĠAustral": 3154,
      "Ġcopy": 3155,
      "05": 3156,
      "apan": 3157,
      "Ġwritten": 3158,
      "Ġwon": 3159,
      "iet": 3160,
      "Ġrandom": 3161,
      "Ġsection": 3162,
      "Ġentire": 3163,
      "Ġactually": 3164,
      "Ġutil": 3165,
      "host": 3166,
      "OT": 3167,
      "Ġmessage": 3168,
      "overed": 3169,
      "Ġsearch": 3170,
      "Ġop": 3171,
      "Ġid": 3172,
      "bf": 3173,
      "Ġconstant": 3174,
      "pper": 3175,
      "Ġexec": 3176,
      "df": 3177,
      "ĠAct": 3178,
      "ĠTest": 3179,
      "Ġdoesn": 3180,
      "trans": 3181,
      "Ġaccording": 3182,
      "ensity": 3183,
      "ached": 3184,
      "Ġvalid": 3185,
      "ening": 3186,
      "ĠMod": 3187,
      "Ġpatients": 3188,
      "ners": 3189,
      "sk": 3190,
      "Ġri": 3191,
      "38": 3192,
      "Ġinstead": 3193,
      "ĠSeptember": 3194,
      "ĉĉĉ": 3195,
      "Ġroot": 3196,
      "orage": 3197,
      "ensive": 3198,
      "ĠBritish": 3199,
      "Ġinitial": 3200,
      "Ġaverage": 3201,
      "Ġsong": 3202,
      "map": 3203,
      "izes": 3204,
      "uck": 3205,
      "Ġmental": 3206,
      "Ġestim": 3207,
      "Ġprior": 3208,
      "Ġfields": 3209,
      "Ġanim": 3210,
      "api": 3211,
      "ana": 3212,
      "ĠCons": 3213,
      "Ġnode": 3214,
      "aily": 3215,
      "Ġ['": 3216,
      "lin": 3217,
      "rapy": 3218,
      "Sc": 3219,
      "Ġund": 3220,
      "âĪĴ": 3221,
      "Ġincreased": 3222,
      "Ġblack": 3223,
      "``": 3224,
      "Ġparticularly": 3225,
      "Ġtraditional": 3226,
      "lied": 3227,
      "xim": 3228,
      "Ġgas": 3229,
      "Pl": 3230,
      "Ġalbum": 3231,
      "Ġelectric": 3232,
      "ĠRep": 3233,
      "fully": 3234,
      "Ġprofessional": 3235,
      "By": 3236,
      "uk": 3237,
      "ĠOctober": 3238,
      "fficient": 3239,
      "ĠMarch": 3240,
      "ĠFeb": 3241,
      "do": 3242,
      "AD": 3243,
      "âĢī": 3244,
      "ĠHis": 3245,
      "Ġhyd": 3246,
      "ĠCounty": 3247,
      "egin": 3248,
      "itch": 3249,
      "alt": 3250,
      "Ġlive": 3251,
      "Ġeasy": 3252,
      "Ġeconomic": 3253,
      "Ġwriting": 3254,
      "minist": 3255,
      "Ġtaking": 3256,
      "Ġindepend": 3257,
      "ls": 3258,
      "hood": 3259,
      "que": 3260,
      "ike": 3261,
      "ovember": 3262,
      "aly": 3263,
      "ĠJuly": 3264,
      "Ġtaken": 3265,
      "bar": 3266,
      "anks": 3267,
      "Ġproperty": 3268,
      "wise": 3269,
      "lete": 3270,
      "ĠHere": 3271,
      "ĠAg": 3272,
      "ometimes": 3273,
      "Ġ21": 3274,
      "utes": 3275,
      "Ġnumer": 3276,
      "=\\": 3277,
      "update": 3278,
      "Ġidea": 3279,
      "annel": 3280,
      "Ġreview": 3281,
      "Ġtransform": 3282,
      "ĠJune": 3283,
      "Ġspeed": 3284,
      "django": 3285,
      "artment": 3286,
      "Ġtook": 3287,
      "Ġwhole": 3288,
      "][": 3289,
      "rench": 3290,
      "Ġrefer": 3291,
      "care": 3292,
      "Ġharm": 3293,
      "Ġsleep": 3294,
      "Ġshape": 3295,
      "hib": 3296,
      "ĠDep": 3297,
      "Ġgain": 3298,
      "error": 3299,
      "Ġremov": 3300,
      "Ġdefined": 3301,
      "Ġskin": 3302,
      "Ġclos": 3303,
      "Ġmanufact": 3304,
      "ĠIndia": 3305,
      "rown": 3306,
      "Ar": 3307,
      "down": 3308,
      "Ġmeaning": 3309,
      "Ġcancer": 3310,
      "itect": 3311,
      "acc": 3312,
      "75": 3313,
      "--------------------------------": 3314,
      "Ġdifference": 3315,
      "irection": 3316,
      "Ġestablished": 3317,
      "Ġdigital": 3318,
      "Ġtechniques": 3319,
      ".)": 3320,
      "Ġhalf": 3321,
      "ounter": 3322,
      "cember": 3323,
      "duc": 3324,
      "tes": 3325,
      "Ġlif": 3326,
      "Ġapplication": 3327,
      "Ġsources": 3328,
      "Ġpractices": 3329,
      "oon": 3330,
      "www": 3331,
      "ector": 3332,
      "Ġteac": 3333,
      "Ġitself": 3334,
      "model": 3335,
      "Ġmoney": 3336,
      "Ġfeature": 3337,
      "Ġadapt": 3338,
      "Ġincluded": 3339,
      "fr": 3340,
      "sych": 3341,
      "Ġitem": 3342,
      "length": 3343,
      "Ġpo": 3344,
      "âĢ¦": 3345,
      "36": 3346,
      "Ġreceived": 3347,
      "Ġ[],": 3348,
      "equ": 3349,
      "Ġâ": 3350,
      "Ġproviding": 3351,
      "Ġplayed": 3352,
      "Ġcat": 3353,
      "Ġbegan": 3354,
      "Ġq": 3355,
      "item": 3356,
      "input": 3357,
      "ĠEd": 3358,
      "Ġusers": 3359,
      "Set": 3360,
      "</": 3361,
      "Ġstatus": 3362,
      "Ġclose": 3363,
      "Ġcreating": 3364,
      "reed": 3365,
      "inally": 3366,
      "$,": 3367,
      "izations": 3368,
      "Ġthird": 3369,
      "70": 3370,
      "Ġste": 3371,
      "Ġaccept": 3372,
      "gram": 3373,
      "term": 3374,
      "ĠJanuary": 3375,
      "Ġmom": 3376,
      "Ġproduce": 3377,
      "Ġhy": 3378,
      "Ġcommit": 3379,
      "Ġadditional": 3380,
      "igned": 3381,
      "ĠGeneral": 3382,
      "Ġtree": 3383,
      "ille": 3384,
      "vision": 3385,
      "Ġrequires": 3386,
      "CH": 3387,
      "oding": 3388,
      "const": 3389,
      "'])": 3390,
      "pol": 3391,
      "EM": 3392,
      "asks": 3393,
      "ĠApril": 3394,
      "het": 3395,
      "Ġstop": 3396,
      "client": 3397,
      "Ġnames": 3398,
      "........": 3399,
      "ĠRec": 3400,
      "Ġequal": 3401,
      "ĠNe": 3402,
      "Ġadded": 3403,
      "Ġhom": 3404,
      "().": 3405,
      "Ġcross": 3406,
      "node": 3407,
      "respond": 3408,
      "Ġregard": 3409,
      "Ġoil": 3410,
      "doc": 3411,
      "wid": 3412,
      "ĠLet": 3413,
      "Ġcomplete": 3414,
      "Data": 3415,
      "ronic": 3416,
      "ÂłÂł": 3417,
      "hens": 3418,
      "lear": 3419,
      "fect": 3420,
      "ĠLa": 3421,
      "Ġweek": 3422,
      "Ġnamed": 3423,
      "resh": 3424,
      "Ġobjects": 3425,
      "ĠWill": 3426,
      "dev": 3427,
      "Ġfit": 3428,
      "Ġresearc": 3429,
      "Ġchemical": 3430,
      "Ġaud": 3431,
      "ban": 3432,
      "Ġsun": 3433,
      "Ġaltern": 3434,
      "Ġlocated": 3435,
      "Ġexact": 3436,
      "Ġdefin": 3437,
      "Ġfamil": 3438,
      "Ġpie": 3439,
      "ĠKing": 3440,
      "ivil": 3441,
      "ĠPe": 3442,
      "output": 3443,
      "book": 3444,
      "Ġissue": 3445,
      "ĠRuss": 3446,
      "ĠSim": 3447,
      "hand": 3448,
      "Ġextra": 3449,
      "Ġprocesses": 3450,
      "Is": 3451,
      "Ġthroughout": 3452,
      "Ġcontains": 3453,
      "rest": 3454,
      "68": 3455,
      "ordin": 3456,
      "Ġencou": 3457,
      "label": 3458,
      "ologies": 3459,
      "Ġbit": 3460,
      "process": 3461,
      "Ġetc": 3462,
      "Ġmember": 3463,
      "abit": 3464,
      "ĠPy": 3465,
      "color": 3466,
      "lib": 3467,
      "ĠNovember": 3468,
      "ĠArt": 3469,
      "ibrary": 3470,
      "box": 3471,
      "Ġstyle": 3472,
      "level": 3473,
      "ĠÎ": 3474,
      "Ġdou": 3475,
      "Ġvariety": 3476,
      "Ġ!=": 3477,
      "Ġdamage": 3478,
      "One": 3479,
      "ha": 3480,
      "vant": 3481,
      "Ġforms": 3482,
      "Ġaspect": 3483,
      "Ġuseful": 3484,
      "itude": 3485,
      "Mod": 3486,
      "Ġargs": 3487,
      "rors": 3488,
      "Ġled": 3489,
      "Ġgreen": 3490,
      "ĠYour": 3491,
      "ĠNot": 3492,
      "Ind": 3493,
      "Ġclaim": 3494,
      "Ġvideo": 3495,
      "cret": 3496,
      "mission": 3497,
      "rim": 3498,
      "year": 3499,
      "ilitary": 3500,
      "Ġreleased": 3501,
      "Ġdevice": 3502,
      "Ġexam": 3503,
      "ĠSw": 3504,
      "osis": 3505,
      "ĠJapan": 3506,
      "rick": 3507,
      "Ġreflect": 3508,
      "Ġsafe": 3509,
      "uff": 3510,
      "04": 3511,
      "unic": 3512,
      "AG": 3513,
      "Ġstudent": 3514,
      "69": 3515,
      "IM": 3516,
      "Ġefficient": 3517,
      "Ġyet": 3518,
      "Ġmonths": 3519,
      "Ġ23": 3520,
      "Ġfire": 3521,
      "IL": 3522,
      "Ġgames": 3523,
      "anch": 3524,
      "Ġlonger": 3525,
      "Ġstarted": 3526,
      "Ġsubst": 3527,
      "Ġcred": 3528,
      "Ġmedia": 3529,
      "Ġemb": 3530,
      "Ġface": 3531,
      "Ġpolitical": 3532,
      "ager": 3533,
      "ailed": 3534,
      "Ġ2011": 3535,
      "Ġtim": 3536,
      "But": 3537,
      "Ġmatter": 3538,
      "ĠSch": 3539,
      "net": 3540,
      "ĠDecember": 3541,
      "Ġcompanies": 3542,
      "ĠMon": 3543,
      "Ġaim": 3544,
      "Ġtypically": 3545,
      ",\"": 3546,
      "obj": 3547,
      "http": 3548,
      "Ġdistance": 3549,
      "Ġformat": 3550,
      "Ġmulti": 3551,
      "Ad": 3552,
      "ĠÃ": 3553,
      "fort": 3554,
      "ii": 3555,
      "Ġliving": 3556,
      "istry": 3557,
      "flow": 3558,
      "Ġinnov": 3559,
      "Ġwhite": 3560,
      "ellow": 3561,
      "ĠFrom": 3562,
      "arily": 3563,
      "Ġcareer": 3564,
      "mathrm": 3565,
      "Ġachieve": 3566,
      "Ġdirectly": 3567,
      "mar": 3568,
      "Ġmiss": 3569,
      "Ġshare": 3570,
      "Ġcarbon": 3571,
      "Ġcontact": 3572,
      "ĠAcc": 3573,
      "Ġreading": 3574,
      "ĠDes": 3575,
      "Ġdevices": 3576,
      "Ġrights": 3577,
      "ĠTrans": 3578,
      "ervation": 3579,
      "Ġsample": 3580,
      "Ġcomputer": 3581,
      "rated": 3582,
      "known": 3583,
      "lement": 3584,
      "Ġnegative": 3585,
      "change": 3586,
      "Ġ28": 3587,
      "Ġproduced": 3588,
      "vey": 3589,
      "vere": 3590,
      "Ġsuff": 3591,
      "Ġtowards": 3592,
      "Ġformer": 3593,
      "itation": 3594,
      ".\"\"\"": 3595,
      "avy": 3596,
      "avor": 3597,
      "arrow": 3598,
      "Ġtalk": 3599,
      "Ġthought": 3600,
      "Ġinternational": 3601,
      "Ġdepend": 3602,
      "Ġprograms": 3603,
      "Ġir": 3604,
      "Ġbroad": 3605,
      "Ġdecl": 3606,
      "ING": 3607,
      "asons": 3608,
      "$\\": 3609,
      "Id": 3610,
      "See": 3611,
      "Ġ22": 3612,
      "Ġcateg": 3613,
      "ĠDist": 3614,
      "ĠSer": 3615,
      "Ġheld": 3616,
      "Ġvariable": 3617,
      "Ġexplain": 3618,
      "Ġliter": 3619,
      "Ġtakes": 3620,
      "Ġtax": 3621,
      "Ġarray": 3622,
      "rial": 3623,
      "ulate": 3624,
      "Ġdetermine": 3625,
      "((": 3626,
      "Ġcomponents": 3627,
      "Ġattention": 3628,
      "Ġoptim": 3629,
      "ĠCity": 3630,
      "Ġtask": 3631,
      "estern": 3632,
      "attr": 3633,
      "Ġgreater": 3634,
      "Ġful": 3635,
      "Ġplatform": 3636,
      "Ġestablish": 3637,
      "ĠBo": 3638,
      "'re": 3639,
      "ceed": 3640,
      "Ġprimary": 3641,
      "airs": 3642,
      "Ġmedic": 3643,
      "Ġcommunication": 3644,
      "Ġguid": 3645,
      "split": 3646,
      "mark": 3647,
      "ruary": 3648,
      "Ġsimply": 3649,
      "XX": 3650,
      "ĠDr": 3651,
      "coming": 3652,
      "Ġappropri": 3653,
      "Ġtitle": 3654,
      "osing": 3655,
      "Ġfactor": 3656,
      "Ġcame": 3657,
      "\"),": 3658,
      "estion": 3659,
      "elta": 3660,
      "Ġ2008": 3661,
      "Ġdescribed": 3662,
      "ocks": 3663,
      "Ġ2012": 3664,
      "66": 3665,
      "SS": 3666,
      "48": 3667,
      "Ġcorrespond": 3668,
      "Ġactive": 3669,
      "Ġdate": 3670,
      "mselves": 3671,
      "Ġvolume": 3672,
      "ellig": 3673,
      "Ġvers": 3674,
      "Ġrecent": 3675,
      "Ġlooking": 3676,
      "atively": 3677,
      "Ġprogress": 3678,
      "cast": 3679,
      "Ġcultural": 3680,
      "standing": 3681,
      "ĠAmerica": 3682,
      "pack": 3683,
      "Ġattempt": 3684,
      "Ġimportance": 3685,
      "iam": 3686,
      "Ġdemon": 3687,
      "Ġthemselves": 3688,
      "Ġcamp": 3689,
      "Ġcommunities": 3690,
      "Ġmachine": 3691,
      "File": 3692,
      "Ġ]": 3693,
      "Ġveh": 3694,
      "json": 3695,
      "Ġlives": 3696,
      "ĠSystem": 3697,
      "aged": 3698,
      "Ġconstruction": 3699,
      "Ġlocation": 3700,
      "ensor": 3701,
      "Ġever": 3702,
      "response": 3703,
      "Ġbasic": 3704,
      "So": 3705,
      "lands": 3706,
      "Ġhours": 3707,
      "ĠHigh": 3708,
      "Ġtransport": 3709,
      "ĠAc": 3710,
      "gl": 3711,
      "Int": 3712,
      "html": 3713,
      "Ġslow": 3714,
      "ĠMy": 3715,
      "Ġvia": 3716,
      "Ġcontribut": 3717,
      "Ġ2013": 3718,
      "Ġparameters": 3719,
      "Ġsteps": 3720,
      "Qu": 3721,
      "ricult": 3722,
      "Ġinj": 3723,
      "Ġrob": 3724,
      "stitute": 3725,
      "ĠMore": 3726,
      "Ġconstruct": 3727,
      "abilities": 3728,
      "ĠGr": 3729,
      "ĠInternational": 3730,
      "values": 3731,
      "olar": 3732,
      "ened": 3733,
      "Ġculture": 3734,
      "Ġfarm": 3735,
      "oken": 3736,
      "Ġcou": 3737,
      "sqrt": 3738,
      "Ġevidence": 3739,
      "Ġanc": 3740,
      "Ġcover": 3741,
      "UL": 3742,
      "Ġsort": 3743,
      "Ġtell": 3744,
      "'):": 3745,
      "Ġaware": 3746,
      "och": 3747,
      "Ġstay": 3748,
      "Ġ2016": 3749,
      "pid": 3750,
      "Ġlinear": 3751,
      "ditionally": 3752,
      "================": 3753,
      "Ġ2015": 3754,
      "Ġ2014": 3755,
      "begin": 3756,
      "Ġprote": 3757,
      "cs": 3758,
      "Ġord": 3759,
      "ogle": 3760,
      "Se": 3761,
      "itable": 3762,
      "izer": 3763,
      "Ġdynam": 3764,
      "\\\\": 3765,
      "ĠFirst": 3766,
      "gar": 3767,
      "Ġmonitor": 3768,
      "Get": 3769,
      "urg": 3770,
      "alle": 3771,
      "Ġenhance": 3772,
      "pan": 3773,
      "ĠMus": 3774,
      "08": 3775,
      "Ġexplore": 3776,
      "Ġthing": 3777,
      "erve": 3778,
      "ster": 3779,
      "ĠScience": 3780,
      "Ġgoal": 3781,
      "related": 3782,
      "ken": 3783,
      "agement": 3784,
      "Ġdetails": 3785,
      "born": 3786,
      "ĠChina": 3787,
      "Ġconnection": 3788,
      "IG": 3789,
      "cles": 3790,
      "Ġwebsite": 3791,
      "Ġmor": 3792,
      "Ġdaily": 3793,
      "oice": 3794,
      "irm": 3795,
      "Ġzero": 3796,
      "ĠEm": 3797,
      "Ġconver": 3798,
      "Ġsignificantly": 3799,
      "Ġden": 3800,
      "Ġdiagn": 3801,
      "ĠAN": 3802,
      "Ġpropos": 3803,
      "Ġdecision": 3804,
      "Ġresid": 3805,
      "IP": 3806,
      "Ġdoing": 3807,
      "Ġdecre": 3808,
      "ĠBar": 3809,
      "rip": 3810,
      "Ġfish": 3811,
      "Ġplayer": 3812,
      "Ġalmost": 3813,
      "Ġmap": 3814,
      "Ġdemonstr": 3815,
      "rep": 3816,
      "Ġlack": 3817,
      "pass": 3818,
      "ĠSm": 3819,
      "xi": 3820,
      "02": 3821,
      "image": 3822,
      "Ġoffers": 3823,
      "Ġextrem": 3824,
      "Ġlate": 3825,
      "Ġinvolved": 3826,
      "ĠData": 3827,
      "bor": 3828,
      "ĠIndian": 3829,
      "Ġlarger": 3830,
      "Ġdru": 3831,
      "sl": 3832,
      "Ġsn": 3833,
      ")(": 3834,
      "ued": 3835,
      "Ġeasily": 3836,
      "Ġcompared": 3837,
      "US": 3838,
      "Ġtravel": 3839,
      "idge": 3840,
      "uid": 3841,
      "ĠTechn": 3842,
      "ĠRed": 3843,
      "oll": 3844,
      "Ġrat": 3845,
      "ĠUse": 3846,
      "Ġapproxim": 3847,
      "pite": 3848,
      "lation": 3849,
      "board": 3850,
      "Ġdisplay": 3851,
      "Ġvariables": 3852,
      "198": 3853,
      "44": 3854,
      "oe": 3855,
      "Ġhttps": 3856,
      "Ġtests": 3857,
      "Ġbring": 3858,
      "rc": 3859,
      "Ġlabel": 3860,
      "ĠSu": 3861,
      "Ġstrategies": 3862,
      "Ġinform": 3863,
      "ML": 3864,
      "olic": 3865,
      "ades": 3866,
      "ocol": 3867,
      "Ġthreat": 3868,
      "rypt": 3869,
      "ux": 3870,
      "ĠFebruary": 3871,
      "Ġelectr": 3872,
      "Ġweb": 3873,
      "source": 3874,
      "Ġinside": 3875,
      "wo": 3876,
      "abase": 3877,
      "LO": 3878,
      "Ġprep": 3879,
      "ĠPhys": 3880,
      "onal": 3881,
      "Not": 3882,
      "Ġefficiency": 3883,
      "Ġcapac": 3884,
      "Ġresource": 3885,
      "55": 3886,
      "ĠGl": 3887,
      "irit": 3888,
      "ounds": 3889,
      "ĠPublic": 3890,
      "perty": 3891,
      "result": 3892,
      "ĠWest": 3893,
      "Ġoperations": 3894,
      "Ġsociety": 3895,
      "attle": 3896,
      "Ġdetect": 3897,
      "ancing": 3898,
      "Ġ2017": 3899,
      "Ġrelig": 3900,
      "used": 3901,
      "ĠEarth": 3902,
      "ĠChar": 3903,
      "Ġvisual": 3904,
      "Ġalign": 3905,
      "ĠMc": 3906,
      "With": 3907,
      "Ġrot": 3908,
      "rong": 3909,
      "ffect": 3910,
      "90": 3911,
      "Ġprojects": 3912,
      "Ġpolicy": 3913,
      "Ġvector": 3914,
      "Ġupon": 3915,
      "Ġsec": 3916,
      "31": 3917,
      "otal": 3918,
      "flo": 3919,
      "joy": 3920,
      "hel": 3921,
      "ĠWork": 3922,
      "Ġ27": 3923,
      "apter": 3924,
      "ampions": 3925,
      "Ġtesting": 3926,
      "Ġ40": 3927,
      "plot": 3928,
      "rew": 3929,
      "Ġscale": 3930,
      "Ġparents": 3931,
      "Ġspread": 3932,
      "Ġfilms": 3933,
      "title": 3934,
      "oles": 3935,
      "Ġ2020": 3936,
      "ternet": 3937,
      "Ġtown": 3938,
      "men": 3939,
      "connect": 3940,
      "spec": 3941,
      "ĠFrench": 3942,
      "Ġhor": 3943,
      "irus": 3944,
      "ENT": 3945,
      "raction": 3946,
      "aul": 3947,
      "cil": 3948,
      "Ġhar": 3949,
      "iforn": 3950,
      "ĠThen": 3951,
      "Ġcosts": 3952,
      "Ġflo": 3953,
      "Ġsurv": 3954,
      "ony": 3955,
      "Ġproced": 3956,
      "Ġgot": 3957,
      "Ġanimals": 3958,
      "Ġconcent": 3959,
      "Ġgives": 3960,
      "dim": 3961,
      "come": 3962,
      "Ġmovement": 3963,
      "Ġeth": 3964,
      "ding": 3965,
      "Ġfast": 3966,
      "ros": 3967,
      "ham": 3968,
      "ructure": 3969,
      "'}": 3970,
      "Ġpan": 3971,
      "Ġexamples": 3972,
      "ipment": 3973,
      "Key": 3974,
      "'))": 3975,
      "inct": 3976,
      "base": 3977,
      "Ġclient": 3978,
      "istor": 3979,
      "Ġoutside": 3980,
      "Ġinvolves": 3981,
      "Ġdirection": 3982,
      "Ġmath": 3983,
      "Ġgetting": 3984,
      "Ġcaused": 3985,
      "At": 3986,
      "Ġvert": 3987,
      "Ġsolar": 3988,
      "Ġsil": 3989,
      "Ġwide": 3990,
      "Ob": 3991,
      "Ġimages": 3992,
      "HE": 3993,
      "ica": 3994,
      "Ġarchitect": 3995,
      "Ġquickly": 3996,
      "Ġsupply": 3997,
      "Ġroad": 3998,
      "displaystyle": 3999,
      "Ġtele": 4000,
      "build": 4001,
      "table": 4002,
      "Ġ29": 4003,
      "Ġmemory": 4004,
      "Ġbox": 4005,
      "Ġthus": 4006,
      "Ġcollab": 4007,
      "Ġhttp": 4008,
      "Ġrepl": 4009,
      "Ġspect": 4010,
      "ÃŃ": 4011,
      "zz": 4012,
      "Ġ2018": 4013,
      "}^{": 4014,
      "ĠEl": 4015,
      "'m": 4016,
      "Ġseek": 4017,
      "clusion": 4018,
      "Ġresearchers": 4019,
      "Ġinvestig": 4020,
      "Ġ->": 4021,
      "Ġaccom": 4022,
      "Ġensuring": 4023,
      "Ġlove": 4024,
      "umber": 4025,
      "iers": 4026,
      "ifornia": 4027,
      "Ġinfluence": 4028,
      "Ġyield": 4029,
      "Ġcauses": 4030,
      "Ġschools": 4031,
      "Ġgenerally": 4032,
      "bug": 4033,
      "ieved": 4034,
      "ĠPres": 4035,
      "Ġseem": 4036,
      "ĠRiver": 4037,
      "np": 4038,
      "Ġurl": 4039,
      "ĠSee": 4040,
      "message": 4041,
      "enge": 4042,
      "Ġcentral": 4043,
      "ĠHer": 4044,
      "Ġchoice": 4045,
      "Ġdemand": 4046,
      "igen": 4047,
      "78": 4048,
      "Ġcenter": 4049,
      "alls": 4050,
      "Ġrock": 4051,
      "Ġgoals": 4052,
      "ulated": 4053,
      "Ġcard": 4054,
      "Ġviol": 4055,
      "pat": 4056,
      "Ġstage": 4057,
      "Ġmeasures": 4058,
      "Ġrunning": 4059,
      "var": 4060,
      "fe": 4061,
      "Ġreve": 4062,
      "Ġwindow": 4063,
      "Ġwild": 4064,
      "more": 4065,
      "Ġsys": 4066,
      "Ġpromot": 4067,
      "Ġmole": 4068,
      "erate": 4069,
      "Ġmathemat": 4070,
      "align": 4071,
      "ĠResearch": 4072,
      "Ġborn": 4073,
      "names": 4074,
      "Ġsustainable": 4075,
      "Ġpatient": 4076,
      "Ġbecomes": 4077,
      "En": 4078,
      "iance": 4079,
      "Ġmoment": 4080,
      "Ġreducing": 4081,
      "And": 4082,
      "All": 4083,
      "Ġband": 4084,
      "ĠAir": 4085,
      "top": 4086,
      "Ġadvant": 4087,
      "irtual": 4088,
      "Ġimmed": 4089,
      "49": 4090,
      "sg": 4091,
      "Ġfru": 4092,
      "ĠHar": 4093,
      "ĠĠĠĠĠĠĠĠĠĠĠĠĠĠĠĠĠĠ": 4094,
      "Ġeffectively": 4095,
      "Ġvill": 4096,
      "Ġappropriate": 4097,
      "Ġequations": 4098,
      "ĠDef": 4099,
      "Ġinstit": 4100,
      "force": 4101,
      "onom": 4102,
      "Ġchoose": 4103,
      "Ġlayer": 4104,
      "Ġgrowing": 4105,
      "module": 4106,
      "exp": 4107,
      "uild": 4108,
      "ani": 4109,
      "ico": 4110,
      "ĠDav": 4111,
      "xb": 4112,
      "ĠEuropean": 4113,
      "Ġdeveloping": 4114,
      "urb": 4115,
      "Ġalgorithm": 4116,
      "ĉĉĉĉ": 4117,
      "Ġbehind": 4118,
      "urs": 4119,
      "Ġdegree": 4120,
      "Ġsometimes": 4121,
      "anger": 4122,
      "Ġfilter": 4123,
      "Ġones": 4124,
      "Ġmer": 4125,
      "rote": 4126,
      "params": 4127,
      "Ġevalu": 4128,
      "Ġitems": 4129,
      "shape": 4130,
      "Ġsomeone": 4131,
      "utils": 4132,
      "stract": 4133,
      "aker": 4134,
      "adata": 4135,
      "Ġremove": 4136,
      "Ph": 4137,
      "ees": 4138,
      "ĠĠĠĠĠĠĠĠĊ": 4139,
      "Ġfem": 4140,
      "Ġvisit": 4141,
      "gn": 4142,
      "desc": 4143,
      "NA": 4144,
      "Ġ26": 4145,
      "ĠCalifornia": 4146,
      "Ġlegal": 4147,
      "ĠLeague": 4148,
      "77": 4149,
      "Ġenjoy": 4150,
      "Ġwaste": 4151,
      "Ġcompos": 4152,
      "HO": 4153,
      "Ġfront": 4154,
      "times": 4155,
      "Ġpatterns": 4156,
      "Ġmode": 4157,
      "ube": 4158,
      "Ġgard": 4159,
      "Ġtransfer": 4160,
      "Ġ2007": 4161,
      "Ġ2019": 4162,
      "Ġsold": 4163,
      "isc": 4164,
      "Ġbalance": 4165,
      "Ġpsych": 4166,
      "bin": 4167,
      "Ġhealthcare": 4168,
      "Ġbird": 4169,
      "room": 4170,
      "ously": 4171,
      "PO": 4172,
      "Ġsettings": 4173,
      "Ġlimited": 4174,
      "Ġrule": 4175,
      "Ġcompre": 4176,
      "Ġ##": 4177,
      "parse": 4178,
      "encies": 4179,
      "ifier": 4180,
      "Ġcomplet": 4181,
      "eli": 4182,
      "################################": 4183,
      "Value": 4184,
      "rack": 4185,
      "ils": 4186,
      "alpha": 4187,
      "ondon": 4188,
      "isms": 4189,
      "ĠGerman": 4190,
      "ĠCollege": 4191,
      "ran": 4192,
      "Ġbirths": 4193,
      "Ġmix": 4194,
      "Ġhighly": 4195,
      "position": 4196,
      "uit": 4197,
      "Ġbatter": 4198,
      ")\\": 4199,
      "Ġmonth": 4200,
      "Ġstructures": 4201,
      "Ġut": 4202,
      "reet": 4203,
      "amer": 4204,
      "Ġwood": 4205,
      "rogen": 4206,
      "Ġscreen": 4207,
      "ĠInter": 4208,
      "Ġ(\"": 4209,
      "Ġexisting": 4210,
      "illing": 4211,
      "ĠOther": 4212,
      "ervice": 4213,
      "09": 4214,
      "ĠAre": 4215,
      "PS": 4216,
      "ocal": 4217,
      "cover": 4218,
      "xc": 4219,
      "Ġleaders": 4220,
      "Ġprivate": 4221,
      "MS": 4222,
      "While": 4223,
      "sin": 4224,
      "ui": 4225,
      "eline": 4226,
      "Ġgradu": 4227,
      "filter": 4228,
      "Ġprice": 4229,
      "Americ": 4230,
      "47": 4231,
      "ĠAnt": 4232,
      "Ġche": 4233,
      "Ġfoods": 4234,
      "lier": 4235,
      "Ġexpression": 4236,
      "ĠPark": 4237,
      "07": 4238,
      "Ġnote": 4239,
      "useum": 4240,
      "ederal": 4241,
      "ĠCre": 4242,
      "Ġreported": 4243,
      "Te": 4244,
      "iction": 4245,
      "server": 4246,
      "Ġtheore": 4247,
      "Ġwor": 4248,
      "Ġago": 4249,
      "vest": 4250,
      "apping": 4251,
      "={": 4252,
      "rage": 4253,
      "IR": 4254,
      "Ġapply": 4255,
      "Ġremains": 4256,
      "Ġcontract": 4257,
      "vention": 4258,
      "Ġcoll": 4259,
      "see": 4260,
      "ĠCor": 4261,
      "Ġreach": 4262,
      "Ġapplied": 4263,
      "Ġserver": 4264,
      "ayer": 4265,
      "content": 4266,
      "Ġsetting": 4267,
      "Ġcurrently": 4268,
      "Ġmodule": 4269,
      "Ġcollection": 4270,
      "Ġimpl": 4271,
      "63": 4272,
      "parent": 4273,
      "Ġinfect": 4274,
      "Ġallowing": 4275,
      "rees": 4276,
      "oke": 4277,
      "Ġpref": 4278,
      "Ġclub": 4279,
      "ouncil": 4280,
      "Ġadjust": 4281,
      "Ġquite": 4282,
      "project": 4283,
      "ĠVal": 4284,
      "war": 4285,
      "ĠIN": 4286,
      "ools": 4287,
      "Ġmilitary": 4288,
      "Ġexperiences": 4289,
      "Ġsem": 4290,
      "igma": 4291,
      "open": 4292,
      "61": 4293,
      "Ġsus": 4294,
      "Ġtherefore": 4295,
      "Ġformula": 4296,
      "ama": 4297,
      "No": 4298,
      "Ġstation": 4299,
      "ĠSub": 4300,
      "abled": 4301,
      "Ġadminist": 4302,
      "ij": 4303,
      "Ġfigure": 4304,
      "ensions": 4305,
      "century": 4306,
      "unch": 4307,
      "abet": 4308,
      "Ġround": 4309,
      "post": 4310,
      "FA": 4311,
      "Ġideas": 4312,
      "Ã³": 4313,
      ",\\": 4314,
      "Ġtasks": 4315,
      "ĠUnder": 4316,
      "lines": 4317,
      "ĠReturn": 4318,
      "crete": 4319,
      "Ġmention": 4320,
      "Ġsex": 4321,
      "Ġsmaller": 4322,
      "ĠMany": 4323,
      "yond": 4324,
      "usion": 4325,
      "Ġcontroll": 4326,
      "Ġplot": 4327,
      "Ġrules": 4328,
      "unction": 4329,
      "Ġprotection": 4330,
      "ĠInst": 4331,
      "Ġwhose": 4332,
      "ided": 4333,
      "oes": 4334,
      "Ġhot": 4335,
      "PE": 4336,
      "Ġlat": 4337,
      "tr": 4338,
      "Ġmid": 4339,
      "inated": 4340,
      "vis": 4341,
      "Ġfat": 4342,
      "ancy": 4343,
      "rupt": 4344,
      "being": 4345,
      "Ġfrequency": 4346,
      "Ġprop": 4347,
      "Ġsquare": 4348,
      "Ġexercise": 4349,
      "query": 4350,
      "PL": 4351,
      "Ġign": 4352,
      "Ġserved": 4353,
      "ĠCanada": 4354,
      "Ġprobably": 4355,
      "Ġequipment": 4356,
      "Ġsouth": 4357,
      "ya": 4358,
      "ĠAng": 4359,
      "DO": 4360,
      "rie": 4361,
      "Ġmock": 4362,
      "range": 4363,
      "Ġupd": 4364,
      "Ġwind": 4365,
      "Ġbad": 4366,
      "Ġsurround": 4367,
      "ĠLear": 4368,
      "Ġtechnologies": 4369,
      "Ġoperation": 4370,
      "Ġsequence": 4371,
      "Ġlost": 4372,
      "Ġnight": 4373,
      "ecause": 4374,
      "Ġbehavi": 4375,
      "mary": 4376,
      "oper": 4377,
      "Ġisinstance": 4378,
      "Ġacid": 4379,
      "Ġbeyond": 4380,
      "Ġdry": 4381,
      "Ġreference": 4382,
      "ĠPhil": 4383,
      "Ġcontribute": 4384,
      "Ġbeaut": 4385,
      "Ġopportunities": 4386,
      "Ġunits": 4387,
      "ias": 4388,
      "Par": 4389,
      "Ġ``": 4390,
      "Ġseems": 4391,
      "Ġminutes": 4392,
      "ris": 4393,
      "gebra": 4394,
      "can": 4395,
      "Ġrates": 4396,
      "ameters": 4397,
      "Time": 4398,
      "}_{": 4399,
      "Ġsave": 4400,
      "Ġsignal": 4401,
      "avig": 4402,
      "Ġofficial": 4403,
      "Ġ\\\\": 4404,
      "Ġrelease": 4405,
      "Ġexpand": 4406,
      "oo": 4407,
      "ĠLondon": 4408,
      "omb": 4409,
      "phas": 4410,
      "Ġupdate": 4411,
      "Ġisn": 4412,
      "Ġ'''": 4413,
      "[:": 4414,
      "Ġbelieve": 4415,
      "Ġmaximum": 4416,
      "Ġmis": 4417,
      "ĠBlack": 4418,
      "ying": 4419,
      "msg": 4420,
      "ares": 4421,
      "lambda": 4422,
      "ĠClass": 4423,
      "rought": 4424,
      "hol": 4425,
      "ctors": 4426,
      "Ġrisks": 4427,
      "iable": 4428,
      "Ġpurpose": 4429,
      "Ġcop": 4430,
      "Ġmanage": 4431,
      "rices": 4432,
      "function": 4433,
      "Ġefforts": 4434,
      "Ġcele": 4435,
      "Ġpick": 4436,
      "find": 4437,
      "Ġreturned": 4438,
      "ĠJournal": 4439,
      "Ġbooks": 4440,
      "uries": 4441,
      "osure": 4442,
      "Ġtherapy": 4443,
      "iring": 4444,
      "elligence": 4445,
      "ampionship": 4446,
      "olumn": 4447,
      "sol": 4448,
      "ĠEduc": 4449,
      "page": 4450,
      "Ġstru": 4451,
      "Ġminim": 4452,
      "Ġeye": 4453,
      "uge": 4454,
      "rum": 4455,
      "hing": 4456,
      "58": 4457,
      "ĠĠĠĠĠĠĠĠĠĠĠĠĠ": 4458,
      "Ġsets": 4459,
      "body": 4460,
      "Ġcoordin": 4461,
      "ĠAssoci": 4462,
      "Ġwent": 4463,
      "]:": 4464,
      "Ġcolumn": 4465,
      "Ġstorage": 4466,
      "Ġserious": 4467,
      "Ġrequirements": 4468,
      "Ġplaces": 4469,
      "pected": 4470,
      "ĠCour": 4471,
      "UN": 4472,
      "Ġbacter": 4473,
      "Ġqual": 4474,
      "last": 4475,
      "Ġheight": 4476,
      "ĠInstitute": 4477,
      "Ġcomprehens": 4478,
      "quest": 4479,
      "Ġhope": 4480,
      "root": 4481,
      "ĠSol": 4482,
      "Ġbasis": 4483,
      "Ġperfect": 4484,
      "Ġpict": 4485,
      "ĠMich": 4486,
      "Ġvit": 4487,
      "Col": 4488,
      "Ġprobability": 4489,
      "Ġpowerful": 4490,
      "ington": 4491,
      "ĠPre": 4492,
      "Ġfriend": 4493,
      "PI": 4494,
      "ander": 4495,
      "ĠSince": 4496,
      "ĠĠĠĠĠĠĠĠĠĠĠĠ": 4497,
      "Ġnorth": 4498,
      "Ġstra": 4499,
      "Ġstri": 4500,
      "uable": 4501,
      "oined": 4502,
      "iber": 4503,
      "main": 4504,
      "ĠSet": 4505,
      "Ġtrees": 4506,
      "items": 4507,
      "ifying": 4508,
      "ios": 4509,
      "gra": 4510,
      "Ġsuccessful": 4511,
      "Ġwrote": 4512,
      "II": 4513,
      "Ġsituation": 4514,
      "Ġdiseases": 4515,
      "aa": 4516,
      "ĠOver": 4517,
      "Ġquery": 4518,
      "Ġallowed": 4519,
      "ĠMark": 4520,
      "Ġ60": 4521,
      "________": 4522,
      "Ġresponsible": 4523,
      "ship": 4524,
      "ooth": 4525,
      "Ġcool": 4526,
      "Ġorganizations": 4527,
      "width": 4528,
      "Ġbur": 4529,
      "CC": 4530,
      "Form": 4531,
      "Ġincorpor": 4532,
      "lock": 4533,
      "62": 4534,
      "isf": 4535,
      "Ġtrying": 4536,
      "Ġdb": 4537,
      "Ġten": 4538,
      "Ġdied": 4539,
      "American": 4540,
      "Ġparameter": 4541,
      "enses": 4542,
      "ĠLab": 4543,
      "Ġactual": 4544,
      "Ġadvanced": 4545,
      "current": 4546,
      "AA": 4547,
      "ourney": 4548,
      "Ġdistributed": 4549,
      "Ġpurch": 4550,
      "Ġpoll": 4551,
      "ottom": 4552,
      "ĠRem": 4553,
      "}^": 4554,
      "=[": 4555,
      "erg": 4556,
      "ĠEngland": 4557,
      "keys": 4558,
      "bre": 4559,
      "ĠAfrica": 4560,
      "ĠFound": 4561,
      "Ġreplace": 4562,
      "ometry": 4563,
      "Ġvict": 4564,
      "Ġstrength": 4565,
      "Ġshap": 4566,
      "Ġdefinition": 4567,
      "Ġpoor": 4568,
      "sec": 4569,
      "ĠSan": 4570,
      "Ġforest": 4571,
      "Ġspirit": 4572,
      "Ġactions": 4573,
      "Ġorganization": 4574,
      "ĠCenter": 4575,
      "mathbb": 4576,
      "float": 4577,
      "Ġsal": 4578,
      "la": 4579,
      "Ġsevere": 4580,
      "Ġjoint": 4581,
      "Ġhyp": 4582,
      "reek": 4583,
      "inn": 4584,
      "icate": 4585,
      "ĠList": 4586,
      "Ġleaves": 4587,
      "eps": 4588,
      "Ġrich": 4589,
      "ï¿": 4590,
      "Ġstore": 4591,
      "After": 4592,
      "Ġ2006": 4593,
      "Ġphase": 4594,
      "ĠNow": 4595,
      "Ġnuc": 4596,
      "mathbf": 4597,
      "aset": 4598,
      "zer": 4599,
      "elt": 4600,
      "Ġgenerate": 4601,
      "unt": 4602,
      "link": 4603,
      "ï¿½": 4604,
      "Ġagricult": 4605,
      "Ġstar": 4606,
      "Up": 4607,
      "ĠSupp": 4608,
      "TT": 4609,
      "Ġcompl": 4610,
      "Ġdark": 4611,
      "06": 4612,
      "Ġsolve": 4613,
      "ĠHol": 4614,
      "pace": 4615,
      "Ġreduced": 4616,
      "space": 4617,
      "acing": 4618,
      "These": 4619,
      "ara": 4620,
      "ĠHouse": 4621,
      "Ġtrig": 4622,
      "Ġveget": 4623,
      "auth": 4624,
      "Ġcivil": 4625,
      "sect": 4626,
      "inese": 4627,
      "Ġacad": 4628,
      "xd": 4629,
      "Ġ65": 4630,
      "Ġwalk": 4631,
      "theta": 4632,
      "Ġargument": 4633,
      "ĠMath": 4634,
      "ĠĠĠĠĠĠĠĠĠĠĠĠĠĠĠĠĠĠĠĠĠĠĠĠĠĠĠĠĠĠĠ": 4635,
      "Ġthinking": 4636,
      "Ġinstr": 4637,
      "Ġcore": 4638,
      "Ġcand": 4639,
      "ĠBra": 4640,
      "Ġstarting": 4641,
      "Ġentry": 4642,
      "Ġschem": 4643,
      "uster": 4644,
      "files": 4645,
      "Ġdecisions": 4646,
      "Ġindependent": 4647,
      "Ġdescription": 4648,
      "Ġhon": 4649,
      "Ġscientific": 4650,
      "Ġchanged": 4651,
      "ouch": 4652,
      "ĠAustralia": 4653,
      "Ġadvance": 4654,
      "(_": 4655,
      "Ġassist": 4656,
      "Ġson": 4657,
      "Â°": 4658,
      "Ġmount": 4659,
      "ĠDuring": 4660,
      "Ġcomponent": 4661,
      "umb": 4662,
      "74": 4663,
      "ĠSpec": 4664,
      "Ġlandsc": 4665,
      "ĠTr": 4666,
      "59": 4667,
      "Ġvital": 4668,
      "ĠOur": 4669,
      "Text": 4670,
      "Ġhabit": 4671,
      "DF": 4672,
      "essages": 4673,
      "Ġdivid": 4674,
      "Ġyourself": 4675,
      "Ġnutri": 4676,
      "ĠDepartment": 4677,
      "88": 4678,
      "Add": 4679,
      "Ġbirth": 4680,
      "odies": 4681,
      "unk": 4682,
      "Ġmother": 4683,
      "ĠIts": 4684,
      "Ġcapital": 4685,
      "acters": 4686,
      "aid": 4687,
      "ech": 4688,
      "equal": 4689,
      "Ġconnected": 4690,
      "ds": 4691,
      "Ġworked": 4692,
      "-\\": 4693,
      "target": 4694,
      "Ġcapacity": 4695,
      "Ġded": 4696,
      "debug": 4697,
      "ĠDay": 4698,
      "Ġearth": 4699,
      "ĠFl": 4700,
      "ĠEast": 4701,
      "Ġforward": 4702,
      "Char": 4703,
      "Ġperformed": 4704,
      "ĠDevelop": 4705,
      "iot": 4706,
      "ĠGovern": 4707,
      "Ġrapid": 4708,
      "ĠJew": 4709,
      "rition": 4710,
      "oyal": 4711,
      "Ġeverything": 4712,
      "Ġbond": 4713,
      "omial": 4714,
      "Ġtend": 4715,
      "Ġtrust": 4716,
      "orthern": 4717,
      "aign": 4718,
      "Ġ2021": 4719,
      "Ġwarm": 4720,
      "ĠPat": 4721,
      "Ġalthough": 4722,
      "objects": 4723,
      "ĠLaw": 4724,
      "Ġwave": 4725,
      "Ġpresence": 4726,
      "ĠSk": 4727,
      "Ġneigh": 4728,
      "Ġsitu": 4729,
      "orial": 4730,
      "ĠEach": 4731,
      "gener": 4732,
      "ĠChurch": 4733,
      "IV": 4734,
      "Ġvacc": 4735,
      "clude": 4736,
      "42": 4737,
      "ĠOf": 4738,
      "Pe": 4739,
      "ses": 4740,
      "water": 4741,
      "urt": 4742,
      "Ġprocessing": 4743,
      "filename": 4744,
      "Ġball": 4745,
      "Ġlargest": 4746,
      "idden": 4747,
      "emy": 4748,
      "}{\\": 4749,
      "Ġcook": 4750,
      "De": 4751,
      "ĠFree": 4752,
      "Ġplays": 4753,
      "porary": 4754,
      "Ġmag": 4755,
      "eks": 4756,
      "Ġnovel": 4757,
      "ync": 4758,
      "but": 4759,
      "Ġexperim": 4760,
      "pped": 4761,
      "Ġmale": 4762,
      "Ġvary": 4763,
      "Ġemotional": 4764,
      "atur": 4765,
      "Ġcommonly": 4766,
      "beta": 4767,
      "Ġsession": 4768,
      "Ġeasier": 4769,
      "ĠRef": 4770,
      "outhern": 4771,
      "********": 4772,
      "PT": 4773,
      "Ġforces": 4774,
      "stream": 4775,
      "79": 4776,
      "({": 4777,
      "xe": 4778,
      "ingu": 4779,
      "Ġmob": 4780,
      "Ġroom": 4781,
      "aur": 4782,
      "core": 4783,
      "Ġauth": 4784,
      "Ġfully": 4785,
      "Ġancient": 4786,
      "orders": 4787,
      "Ġemphas": 4788,
      "ĠDistrict": 4789,
      "xiety": 4790,
      "Ġstream": 4791,
      "Ġstandards": 4792,
      "ĠAlso": 4793,
      "bal": 4794,
      "Ġnorm": 4795,
      "Ġdomain": 4796,
      "Ġmoved": 4797,
      "Ġfollows": 4798,
      "Ġbackground": 4799,
      "Ġrecommend": 4800,
      "Ġresulting": 4801,
      "Ġinsp": 4802,
      "Ġbeginning": 4803,
      "ildren": 4804,
      "ipl": 4805,
      "Ġclasses": 4806,
      "Ġcomment": 4807,
      ")]": 4808,
      "ĠGet": 4809,
      "Ġimag": 4810,
      "CE": 4811,
      "Ġhandle": 4812,
      "Ġguide": 4813,
      "Ġfamilies": 4814,
      "ĠPost": 4815,
      "Ġpromote": 4816,
      "aled": 4817,
      "pret": 4818,
      "From": 4819,
      "onic": 4820,
      "Ġ>>>": 4821,
      "Ġhistorical": 4822,
      "ĠMathemat": 4823,
      "ĠĠĠĠĠĠĠĠĠĠ": 4824,
      "ĠDiv": 4825,
      "Ġspaces": 4826,
      "life": 4827,
      "Ġattract": 4828,
      "tag": 4829,
      "ocket": 4830,
      "Ã¼": 4831,
      "Ġobserved": 4832,
      "isation": 4833,
      "iar": 4834,
      "Ġpassed": 4835,
      "Ġwrong": 4836,
      "types": 4837,
      "Ġfather": 4838,
      "Ġconsequ": 4839,
      "edia": 4840,
      "Ġfost": 4841,
      "Ġcompar": 4842,
      "Ġjud": 4843,
      "Ġscen": 4844,
      "Ġreceive": 4845,
      "Ġrepe": 4846,
      "che": 4847,
      "conf": 4848,
      "Ġrespond": 4849,
      "wide": 4850,
      "Ġanimal": 4851,
      "ario": 4852,
      "ĠMor": 4853,
      "Ġacqu": 4854,
      "Ġtrend": 4855,
      "BC": 4856,
      "Ġsites": 4857,
      "raint": 4858,
      "ameter": 4859,
      "'\\": 4860,
      "Ġanything": 4861,
      "_{\\": 4862,
      "ĠTheir": 4863,
      "ĠMost": 4864,
      "cean": 4865,
      "Ġmetal": 4866,
      "Ġspecified": 4867,
      "tenance": 4868,
      "Ġmoving": 4869,
      "close": 4870,
      ")=": 4871,
      "Ġfollowed": 4872,
      "Ġbab": 4873,
      "Ġcls": 4874,
      "orge": 4875,
      "Ġcharg": 4876,
      "Ġhous": 4877,
      "Ġcit": 4878,
      "Ã¶": 4879,
      "sor": 4880,
      "Ġnews": 4881,
      "ĠBr": 4882,
      "efore": 4883,
      "ĠKe": 4884,
      "Ġsoon": 4885,
      "Ġregions": 4886,
      "ÂŃ": 4887,
      "iples": 4888,
      "writ": 4889,
      "Ġscript": 4890,
      "frame": 4891,
      "option": 4892,
      "Ġtrade": 4893,
      "Ġangle": 4894,
      "Ġclin": 4895,
      "Ġdensity": 4896,
      "Ġfuel": 4897,
      "env": 4898,
      "Ġ{\\": 4899,
      "Ġbusinesses": 4900,
      "Ġgoes": 4901,
      "Ġeat": 4902,
      "ĠRoman": 4903,
      "Ġsigns": 4904,
      "ĠAfrican": 4905,
      "Ġ2000": 4906,
      "Ġpolic": 4907,
      "rics": 4908,
      "ĠPort": 4909,
      "ĠUK": 4910,
      "rab": 4911,
      "Ġbenefit": 4912,
      "ĠPython": 4913,
      "Ġpow": 4914,
      "rier": 4915,
      "Ġscore": 4916,
      "dec": 4917,
      "ĠBel": 4918,
      "Ġformed": 4919,
      "aint": 4920,
      "','": 4921,
      "Ġcarry": 4922,
      "ipal": 4923,
      "section": 4924,
      "{{": 4925,
      "ĠValue": 4926,
      "ilk": 4927,
      "Ġjourney": 4928,
      "roy": 4929,
      "ĠComput": 4930,
      "session": 4931,
      "Ġ},": 4932,
      "Ġsynt": 4933,
      "Ġinternal": 4934,
      "Ġarri": 4935,
      "uple": 4936,
      "Ġboard": 4937,
      "'ll": 4938,
      "}(": 4939,
      "exec": 4940,
      "Ġsimpl": 4941,
      "App": 4942,
      "Ġcharge": 4943,
      "rang": 4944,
      "Ġhumans": 4945,
      "Ġfixed": 4946,
      "ĠDec": 4947,
      "arian": 4948,
      "ĠIS": 4949,
      "Ġequival": 4950,
      "54": 4951,
      "ĠFrance": 4952,
      "ategy": 4953,
      "Ġserve": 4954,
      "Ġdeal": 4955,
      "57": 4956,
      "ributes": 4957,
      "rd": 4958,
      "hent": 4959,
      "esh": 4960,
      "long": 4961,
      "alysis": 4962,
      "New": 4963,
      "Ġresistance": 4964,
      "ĠElect": 4965,
      "'ve": 4966,
      "Ġmo": 4967,
      "ĠBro": 4968,
      "Ġreasons": 4969,
      "Ġdeaths": 4970,
      "Ġevol": 4971,
      "Ġerrors": 4972,
      "OS": 4973,
      "Ġgenerated": 4974,
      "Ġworkers": 4975,
      "Ġeducational": 4976,
      "Ġrelative": 4977,
      "ests": 4978,
      "ĠJust": 4979,
      "Ġtrain": 4980,
      "ibly": 4981,
      "Ġexecut": 4982,
      "Ġaspects": 4983,
      ")))": 4984,
      "Ġblue": 4985,
      "Ġquantum": 4986,
      "ĠAtt": 4987,
      "Ġult": 4988,
      "Ġtiss": 4989,
      "Ġ2005": 4990,
      "Ġteeth": 4991,
      "89": 4992,
      "older": 4993,
      "FF": 4994,
      "ĠRepublic": 4995,
      "MA": 4996,
      "Ġstrugg": 4997,
      "plications": 4998,
      "Ġpet": 4999,
      "Ġcharacters": 5000,
      "Ġweather": 5001,
      "ĠGermany": 5002,
      "Ġeveryone": 5003,
      "Ġpoly": 5004,
      "Ġlogging": 5005,
      "ĠAv": 5006,
      "Ġexperiment": 5007,
      "Ġdifferences": 5008,
      "Ġteaching": 5009,
      "EX": 5010,
      "Acc": 5011,
      "Ġmaintaining": 5012,
      "Ġweeks": 5013,
      "ĠMex": 5014,
      "Ġincreases": 5015,
      "Ġmissing": 5016,
      "uman": 5017,
      "ĠForm": 5018,
      "Ġidentity": 5019,
      "Ġplaced": 5020,
      "mitted": 5021,
      "Ġstatement": 5022,
      "anish": 5023,
      "Ġdepending": 5024,
      "Ġenter": 5025,
      "TR": 5026,
      "iveness": 5027,
      "ĠOpen": 5028,
      "options": 5029,
      "Ġexactly": 5030,
      "house": 5031,
      "Ġcompletely": 5032,
      "Ġalternative": 5033,
      "Ġreaction": 5034,
      "Ġteachers": 5035,
      "des": 5036,
      "ĠUnion": 5037,
      "Object": 5038,
      "ĠÂłĠÂł": 5039,
      "Ġmig": 5040,
      "Ġprotein": 5041,
      "~~": 5042,
      "Ġprofession": 5043,
      "Ġlabor": 5044,
      "ĠPal": 5045,
      "Ġselected": 5046,
      "show": 5047,
      "gress": 5048,
      "Let": 5049,
      "ĠOut": 5050,
      "Ġfeet": 5051,
      "ĠArch": 5052,
      "dri": 5053,
      "sm": 5054,
      "haps": 5055,
      "Ġfight": 5056,
      "Ġcontinued": 5057,
      "ĠConf": 5058,
      "cdot": 5059,
      "Ġgold": 5060,
      "iences": 5061,
      "ĠPress": 5062,
      "Ġdouble": 5063,
      "Ġburn": 5064,
      "Ġconflic": 5065,
      "command": 5066,
      "Ġcompleted": 5067,
      "Ġiniti": 5068,
      "Ġsatisf": 5069,
      "ĠTherefore": 5070,
      "Ġcycle": 5071,
      "Ġmill": 5072,
      "leg": 5073,
      "Ġcontaining": 5074,
      "Ġframework": 5075,
      "search": 5076,
      "ĠGroup": 5077,
      "Ġemp": 5078,
      "Ġintegr": 5079,
      "Ġconsumption": 5080,
      "block": 5081,
      "Ġcombination": 5082,
      "fit": 5083,
      "Ġaxis": 5084,
      "Ġhands": 5085,
      "ocr": 5086,
      "delete": 5087,
      "ĠChinese": 5088,
      "Ġelim": 5089,
      "Ġideal": 5090,
      "Ġjson": 5091,
      "ought": 5092,
      "det": 5093,
      "Ġ?": 5094,
      "amma": 5095,
      "nel": 5096,
      "matrix": 5097,
      "|-": 5098,
      "Ġjournal": 5099,
      "ĠAdditionally": 5100,
      "Ġplanning": 5101,
      "hy": 5102,
      "ether": 5103,
      "Ġsea": 5104,
      "mosp": 5105,
      "Ġtopic": 5106,
      "semb": 5107,
      "Ġoccurs": 5108,
      "43": 5109,
      "Fil": 5110,
      "Ġrelevant": 5111,
      "amil": 5112,
      "Ġbuildings": 5113,
      "Ġkids": 5114,
      "amental": 5115,
      "ĠGra": 5116,
      "Ġvaluable": 5117,
      "Ġclosed": 5118,
      "inger": 5119,
      "ĠCommun": 5120,
      "Fr": 5121,
      "Ġing": 5122,
      "eloc": 5123,
      "ĠAlthough": 5124,
      "ford": 5125,
      "ĠDi": 5126,
      "iding": 5127,
      "Ġnavig": 5128,
      "ael": 5129,
      "ifically": 5130,
      "icated": 5131,
      "orph": 5132,
      "Ġdistinct": 5133,
      "Ġemail": 5134,
      "Ġnumerous": 5135,
      "Can": 5136,
      "Ġdiverse": 5137,
      "Ġintroduced": 5138,
      "Ġannoun": 5139,
      "copy": 5140,
      "pty": 5141,
      "Ġcomfort": 5142,
      "Ġchallenge": 5143,
      "sim": 5144,
      "Ġanti": 5145,
      "Ġsaw": 5146,
      "Ġreturns": 5147,
      "Man": 5148,
      "Ġdiag": 5149,
      "ospital": 5150,
      "Ġillust": 5151,
      "Ġcomprehensive": 5152,
      "gment": 5153,
      "Ġflex": 5154,
      "Ġpackage": 5155,
      "Ġtransl": 5156,
      "Ġaffected": 5157,
      "Ġstaff": 5158,
      "event": 5159,
      "Ġscientists": 5160,
      "Ġabsor": 5161,
      "oday": 5162,
      "ĠSur": 5163,
      "Ġsyn": 5164,
      "Ġobtained": 5165,
      "ga": 5166,
      "Ser": 5167,
      "Rec": 5168,
      "Ġexcess": 5169,
      "faces": 5170,
      "NU": 5171,
      "Ġdirectory": 5172,
      "Ġbank": 5173,
      "ugin": 5174,
      "ĠPower": 5175,
      "Ġcommer": 5176,
      "adian": 5177,
      "ĠMal": 5178,
      "mu": 5179,
      "Ġrise": 5180,
      "nergy": 5181,
      "Le": 5182,
      "Ġmsg": 5183,
      "resents": 5184,
      "cell": 5185,
      "Ġ31": 5186,
      "Ġopportunity": 5187,
      "Ġchain": 5188,
      "ava": 5189,
      "Ġsupported": 5190,
      "iform": 5191,
      "number": 5192,
      "ĠPri": 5193,
      "Ġappoint": 5194,
      "Ġexhib": 5195,
      "ĠĠĠĠĠĠĠĠĠĠĠĠĠĠ": 5196,
      "Ġchurch": 5197,
      "ĠOF": 5198,
      "Ġleave": 5199,
      "Ġorigin": 5200,
      "ycl": 5201,
      "ĠHel": 5202,
      "Model": 5203,
      "46": 5204,
      "omas": 5205,
      "Def": 5206,
      "Ġcert": 5207,
      "anges": 5208,
      "ĠAccording": 5209,
      "ĠEngine": 5210,
      "Ġdefine": 5211,
      "Ġperspect": 5212,
      "ĠOb": 5213,
      "Ġexposure": 5214,
      "CL": 5215,
      "ificial": 5216,
      "abetes": 5217,
      "Ġfloat": 5218,
      "hether": 5219,
      "Ġcounter": 5220,
      "ĠRev": 5221,
      "Now": 5222,
      "property": 5223,
      "ANT": 5224,
      "Ġconv": 5225,
      "bert": 5226,
      "Ġsports": 5227,
      "Ġinteresting": 5228,
      "Ġmaster": 5229,
      "Ġstrategy": 5230,
      "ersion": 5231,
      "mock": 5232,
      "xa": 5233,
      "berg": 5234,
      "EST": 5235,
      "Ġpen": 5236,
      "'}),": 5237,
      "Ġvirus": 5238,
      "âĢĿ.": 5239,
      "Ġcelebr": 5240,
      "token": 5241,
      "Ġeconomy": 5242,
      "Ġplaying": 5243,
      "atically": 5244,
      "ĠWash": 5245,
      "+\\": 5246,
      "Ġratio": 5247,
      "Ġpair": 5248,
      "service": 5249,
      "Ġexpert": 5250,
      "fess": 5251,
      "EL": 5252,
      "pop": 5253,
      "Ġdrink": 5254,
      "rastructure": 5255,
      "Ġanxiety": 5256,
      "aste": 5257,
      "hesis": 5258,
      "Ġfair": 5259,
      "ĠAdd": 5260,
      "phi": 5261,
      "Ġshared": 5262,
      "ĠRel": 5263,
      "Ġrelationships": 5264,
      "urance": 5265,
      "Ġinterval": 5266,
      "ĠMet": 5267,
      "Ġenviron": 5268,
      "Ġsugar": 5269,
      "save": 5270,
      "Ġemissions": 5271,
      "allel": 5272,
      "41": 5273,
      "ĠAlex": 5274,
      "ida": 5275,
      "entry": 5276,
      "Ab": 5277,
      "Ġsect": 5278,
      "ensional": 5279,
      "Ġnetworks": 5280,
      "ĠWater": 5281,
      "Cre": 5282,
      "inder": 5283,
      "Ġvillage": 5284,
      "ESS": 5285,
      "Ġconcerns": 5286,
      "urrent": 5287,
      "Ġgiving": 5288,
      "Here": 5289,
      "ĠRead": 5290,
      "ĠAut": 5291,
      "ĠChristian": 5292,
      "Ġweak": 5293,
      "ĠProgram": 5294,
      "Ġimproved": 5295,
      "Ġapproximately": 5296,
      "rich": 5297,
      "Ġlaws": 5298,
      "ĠBer": 5299,
      "Ġcontinuous": 5300,
      "ĠAssociation": 5301,
      "network": 5302,
      "win": 5303,
      "anguages": 5304,
      "Ġtour": 5305,
      "Sub": 5306,
      "Ġdead": 5307,
      "aught": 5308,
      "xid": 5309,
      "95": 5310,
      "product": 5311,
      "Ġexists": 5312,
      "ĠUp": 5313,
      "Ġexternal": 5314,
      "ĠBen": 5315,
      "Ġ${\\": 5316,
      "ĠUsing": 5317,
      "ĠCheck": 5318,
      "Ġproof": 5319,
      "Ġbul": 5320,
      "Ġobj": 5321,
      "Ġoffice": 5322,
      "Ġdatabase": 5323,
      "ado": 5324,
      "Ġdu": 5325,
      "Ġnothing": 5326,
      "Ġthous": 5327,
      "Ġcloud": 5328,
      "Ġgeneration": 5329,
      "ira": 5330,
      "cel": 5331,
      "Ġmiddle": 5332,
      "Ġupper": 5333,
      "Ġmut": 5334,
      "Ġraw": 5335,
      "Ġinfl": 5336,
      "Ġsamples": 5337,
      "Ġremember": 5338,
      "Ġesc": 5339,
      "vari": 5340,
      "Ġearlier": 5341,
      "ĠPaul": 5342,
      "ĠEducation": 5343,
      "Reg": 5344,
      "iny": 5345,
      "ocation": 5346,
      "Ġchart": 5347,
      "mode": 5348,
      "Ġ2004": 5349,
      "local": 5350,
      "ĠSociety": 5351,
      "ka": 5352,
      "ATE": 5353,
      "ialog": 5354,
      "ĠGreen": 5355,
      "ĠDavid": 5356,
      "Ġcalculate": 5357,
      "Ġchanging": 5358,
      "ician": 5359,
      "Ġfig": 5360,
      "Return": 5361,
      "ĠHistory": 5362,
      "Ġpp": 5363,
      "Ġliqu": 5364,
      "Ġbrought": 5365,
      "oma": 5366,
      "String": 5367,
      "Ġsolid": 5368,
      "Ġpresented": 5369,
      "Ġrecords": 5370,
      "Ġlib": 5371,
      "CON": 5372,
      "Ġwond": 5373,
      "ĠOR": 5374,
      "72": 5375,
      "icial": 5376,
      "Ġsav": 5377,
      "eal": 5378,
      "VID": 5379,
      "Ġsummer": 5380,
      "Ġedge": 5381,
      "Ġconstit": 5382,
      "ĠPresident": 5383,
      "Ġcorresponding": 5384,
      "ĠâĢ¦": 5385,
      "ĠThus": 5386,
      "Ġpractical": 5387,
      "ĠSum": 5388,
      "ĠGreat": 5389,
      "Ġsecure": 5390,
      "Trans": 5391,
      "ĠCouncil": 5392,
      "van": 5393,
      "mm": 5394,
      "98": 5395,
      "]]": 5396,
      "56": 5397,
      "Ġfix": 5398,
      "inding": 5399,
      "Ġcold": 5400,
      "53": 5401,
      "Ġdoctor": 5402,
      "Ġpiece": 5403,
      "Ġhighest": 5404,
      "lymp": 5405,
      "hi": 5406,
      "which": 5407,
      "Ġworth": 5408,
      "Ġalgorithms": 5409,
      "Ġnation": 5410,
      "ping": 5411,
      "Ġneut": 5412,
      "inf": 5413,
      "ĠEqu": 5414,
      "Ġsend": 5415,
      "Ġteams": 5416,
      "cohol": 5417,
      "ĠBay": 5418,
      "ĠDet": 5419,
      "ĠDon": 5420,
      "Ġassign": 5421,
      "ĠFoundation": 5422,
      "mem": 5423,
      "Ġadding": 5424,
      "Some": 5425,
      "Ġincome": 5426,
      "greg": 5427,
      "Ġrare": 5428,
      "eger": 5429,
      "Ġrepresents": 5430,
      "elines": 5431,
      "Ġdro": 5432,
      "Ġinstruct": 5433,
      "address": 5434,
      "Ġtechnique": 5435,
      "52": 5436,
      "Ġshall": 5437,
      "Ġtag": 5438,
      "CD": 5439,
      "Ġviews": 5440,
      "ĠNote": 5441,
      "weight": 5442,
      "*-": 5443,
      "scale": 5444,
      "ĠÐ": 5445,
      "Ġoccup": 5446,
      "Ġdrive": 5447,
      "Inst": 5448,
      "Ġinsights": 5449,
      "Ġprefer": 5450,
      "Ġbecoming": 5451,
      "estic": 5452,
      "Ġseparate": 5453,
      "Ġmotion": 5454,
      "Ġinvolve": 5455,
      "riend": 5456,
      "Ġasked": 5457,
      "ĠSen": 5458,
      "Ġolder": 5459,
      "inate": 5460,
      "Ġcontinues": 5461,
      "Ġfresh": 5462,
      "People": 5463,
      "rence": 5464,
      "Ġurban": 5465,
      "she": 5466,
      "Ġnet": 5467,
      "Ġcos": 5468,
      "Ġaccurate": 5469,
      "PA": 5470,
      "Ġplastic": 5471,
      "Ġfriends": 5472,
      "Ġdistrict": 5473,
      "ognitive": 5474,
      "ĠJames": 5475,
      "ãģ": 5476,
      "Ġengineering": 5477,
      "ota": 5478,
      "ĠCong": 5479,
      "73": 5480,
      "ĠFin": 5481,
      "patch": 5482,
      "Ġinfection": 5483,
      "ampl": 5484,
      "Ġplans": 5485,
      "overy": 5486,
      "Ġstraight": 5487,
      "has": 5488,
      "Ġswe": 5489,
      "ĠTO": 5490,
      "ano": 5491,
      "iately": 5492,
      "Ġrank": 5493,
      "Ġparticles": 5494,
      "rief": 5495,
      "ishing": 5496,
      "select": 5497,
      "Ġtail": 5498,
      "Ġeating": 5499,
      "Ġinterpret": 5500,
      "Ġminimum": 5501,
      "Ġice": 5502,
      "86": 5503,
      "ffer": 5504,
      "erved": 5505,
      "ĠProv": 5506,
      "Ġimmune": 5507,
      "Ġslight": 5508,
      "Ġcharacteristics": 5509,
      "Ġcoe": 5510,
      "ĠDem": 5511,
      "ste": 5512,
      "ĠChampionship": 5513,
      "Ġdanger": 5514,
      "Ġchannel": 5515,
      "ĠMain": 5516,
      "Ġhyper": 5517,
      "ĠTem": 5518,
      "Ġleads": 5519,
      "ĠRober": 5520,
      "aks": 5521,
      "Ġappears": 5522,
      "cosystem": 5523,
      "osen": 5524,
      "Ġsmart": 5525,
      "Pol": 5526,
      "volume": 5527,
      "Ġcast": 5528,
      "Ġenvironments": 5529,
      "Ġstories": 5530,
      "Ġbacteria": 5531,
      "tage": 5532,
      "2009": 5533,
      "Ġpreviously": 5534,
      "76": 5535,
      "Ġdidn": 5536,
      "51": 5537,
      "xygen": 5538,
      "FC": 5539,
      "Ġthread": 5540,
      "Ġgave": 5541,
      "Ġbra": 5542,
      "gency": 5543,
      "Ġconsult": 5544,
      "Ġtelevision": 5545,
      "Ġfinding": 5546,
      "icon": 5547,
      "Ġbelong": 5548,
      "Ġproposed": 5549,
      "match": 5550,
      "FT": 5551,
      "chain": 5552,
      "author": 5553,
      "Ġeight": 5554,
      "ĠDirect": 5555,
      "Ġnotice": 5556,
      "Ġevolution": 5557,
      "template": 5558,
      "ĠDiff": 5559,
      "ĠJes": 5560,
      "Out": 5561,
      "cache": 5562,
      "Ġdepends": 5563,
      "gr": 5564,
      "Ġsurg": 5565,
      "ĠKey": 5566,
      "undred": 5567,
      "Ġinvestment": 5568,
      "Ġveloc": 5569,
      "Ġtemperatures": 5570,
      "Ġ),": 5571,
      "free": 5572,
      "Ġoppos": 5573,
      "Ġrecorded": 5574,
      "ĠĠĠĠĠĠĠĠĠĠĠĠĠĠĠĠĠ": 5575,
      "ĠST": 5576,
      "Ġcolon": 5577,
      "aus": 5578,
      "Ġegg": 5579,
      "eria": 5580,
      "pref": 5581,
      "ĠQue": 5582,
      "Ġatmosp": 5583,
      "Ġglass": 5584,
      "Ġmotor": 5585,
      "Ġextract": 5586,
      "Ġheavy": 5587,
      "Ġparty": 5588,
      "func": 5589,
      "ĠWilliam": 5590,
      "cher": 5591,
      "Ġoutcomes": 5592,
      "ponse": 5593,
      "den": 5594,
      "ĠMart": 5595,
      "Ġindustrial": 5596,
      "ĠArmy": 5597,
      "Ġreligious": 5598,
      "Ġproperly": 5599,
      "Ġ''": 5600,
      "Ġbreath": 5601,
      "ĠâĢ¢": 5602,
      "Ġstim": 5603,
      "Ġmonitoring": 5604,
      "Ġarguments": 5605,
      "iling": 5606,
      "akers": 5607,
      "Ġeyes": 5608,
      "Ġgets": 5609,
      "Ġintelligence": 5610,
      "going": 5611,
      "ĠAcad": 5612,
      "Ġpolicies": 5613,
      "ini": 5614,
      "Ġmaintenance": 5615,
      "settings": 5616,
      "ifications": 5617,
      "Ġhimself": 5618,
      "ulner": 5619,
      "Ġhelping": 5620,
      "ĠWashington": 5621,
      "Ġcampaign": 5622,
      "??": 5623,
      "(-": 5624,
      "Ġhighlight": 5625,
      "Log": 5626,
      "Ġhol": 5627,
      "hetic": 5628,
      "axis": 5629,
      "Ġbud": 5630,
      "Ġcommercial": 5631,
      "Ġimplementation": 5632,
      "Or": 5633,
      "Ġplanet": 5634,
      "apers": 5635,
      "ĠAD": 5636,
      "iful": 5637,
      "PR": 5638,
      "Ġsmooth": 5639,
      "Base": 5640,
      "Eng": 5641,
      "Ġtherm": 5642,
      "icians": 5643,
      "However": 5644,
      "Ġhit": 5645,
      "Ġelectrical": 5646,
      "Ġbottom": 5647,
      "icit": 5648,
      "Ġphen": 5649,
      "ho": 5650,
      "std": 5651,
      "Ġ00": 5652,
      "Ġeventually": 5653,
      "ipe": 5654,
      "Ġrelatively": 5655,
      "Ġabsol": 5656,
      "nes": 5657,
      "band": 5658,
      "Ġlibrary": 5659,
      "Ġrecommended": 5660,
      "words": 5661,
      "Ġconcepts": 5662,
      "Ġacademic": 5663,
      "Ġhair": 5664,
      "Ġowners": 5665,
      "ĠBook": 5666,
      "Ġoptimal": 5667,
      "Ġtransition": 5668,
      "graph": 5669,
      "ĠCath": 5670,
      "Ġrecently": 5671,
      "ĠFil": 5672,
      "ĠRich": 5673,
      "Ġfaster": 5674,
      "https": 5675,
      "lication": 5676,
      "Ġaccel": 5677,
      "History": 5678,
      "Ġchoices": 5679,
      "Ġvision": 5680,
      "ĠMary": 5681,
      "Ġsch": 5682,
      "ĠFore": 5683,
      "ĠHistor": 5684,
      "Ġcreation": 5685,
      "ĠBi": 5686,
      "ago": 5687,
      "Ġaccuracy": 5688,
      "Ġ45": 5689,
      "Ġparser": 5690,
      "indows": 5691,
      "FI": 5692,
      "ded": 5693,
      "Ġphil": 5694,
      "ynomial": 5695,
      "expected": 5696,
      "Ġremoved": 5697,
      "Ġmuscle": 5698,
      "Ġadults": 5699,
      "Ġunc": 5700,
      "first": 5701,
      "reedom": 5702,
      "partial": 5703,
      "gent": 5704,
      "ĠSl": 5705,
      "tim": 5706,
      "dist": 5707,
      "gu": 5708,
      "wood": 5709,
      "Ġtru": 5710,
      "ĠProject": 5711,
      "antic": 5712,
      "Ġpul": 5713,
      "Ġalone": 5714,
      "tee": 5715,
      "stack": 5716,
      "SC": 5717,
      "Ġsuitable": 5718,
      "eper": 5719,
      "Ġnearly": 5720,
      "req": 5721,
      "mathcal": 5722,
      "normal": 5723,
      "poses": 5724,
      "etch": 5725,
      "Ġexcell": 5726,
      "Ed": 5727,
      "cmd": 5728,
      "Ġgarden": 5729,
      "ĠRad": 5730,
      "Path": 5731,
      "Ġradio": 5732,
      "linear": 5733,
      "urity": 5734,
      "Ġidentified": 5735,
      ")^": 5736,
      "ĠIsra": 5737,
      "Ġ;": 5738,
      "ums": 5739,
      "lies": 5740,
      "Post": 5741,
      "Ġcandid": 5742,
      "atin": 5743,
      "ĠReturns": 5744,
      "ĠBas": 5745,
      "Ġwidely": 5746,
      "ĠEven": 5747,
      "estyle": 5748,
      "ĠĠĠĠĠĠĠĠĠĠĠĠĠĠĠĠĠĠĠĠĠ": 5749,
      "ĠMac": 5750,
      "Ġfa": 5751,
      "Ġrace": 5752,
      "Ġcoast": 5753,
      "abs": 5754,
      "ĠWestern": 5755,
      "ĠRussian": 5756,
      "ups": 5757,
      "#####": 5758,
      "ĠSun": 5759,
      "Ġimproving": 5760,
      "^{-": 5761,
      "OL": 5762,
      "Ġ'/": 5763,
      "Ġaward": 5764,
      "Ġimmediately": 5765,
      "ras": 5766,
      "Ġatom": 5767,
      "Ġcoming": 5768,
      "ĠTime": 5769,
      "ĠNor": 5770,
      "ĠInc": 5771,
      "Ġparams": 5772,
      "Living": 5773,
      "oses": 5774,
      "Ġbattery": 5775,
      "email": 5776,
      "Ġsplit": 5777,
      "oul": 5778,
      "Ġinfrastructure": 5779,
      "Ġprinciples": 5780,
      "Ġtouch": 5781,
      "Ġ2003": 5782,
      "arter": 5783,
      "ned": 5784,
      "cular": 5785,
      "Ġepis": 5786,
      "ĠTur": 5787,
      "Ġconsistent": 5788,
      "[-": 5789,
      "Ġcitiz": 5790,
      "Ġmentioned": 5791,
      "ĠType": 5792,
      "Ġpages": 5793,
      "dule": 5794,
      "ĠSecond": 5795,
      "\"))": 5796,
      "gin": 5797,
      "Ġperm": 5798,
      "script": 5799,
      "Att": 5800,
      "Ġdrug": 5801,
      "ria": 5802,
      "Ġconfiguration": 5803,
      "View": 5804,
      "replace": 5805,
      "Ġplease": 5806,
      "Ġecosystem": 5807,
      "SD": 5808,
      "ophy": 5809,
      "struct": 5810,
      "Wid": 5811,
      "ifies": 5812,
      "Ġcities": 5813,
      "rian": 5814,
      "Ġmanufacture": 5815,
      "Ġreality": 5816,
      "ĠFe": 5817,
      "ĠĠĠĠĠĠĠĠĠĠĠĠĠĠĠĠĠĠĠĠ": 5818,
      "Ġlandscape": 5819,
      "Ġpartners": 5820,
      "ĠID": 5821,
      "Ġinfo": 5822,
      "zing": 5823,
      "ymbol": 5824,
      "ĠTex": 5825,
      "Ġfear": 5826,
      "Ġprepar": 5827,
      "Ġcontrast": 5828,
      "ĠSocial": 5829,
      "ĠSte": 5830,
      "dep": 5831,
      "ĠVol": 5832,
      "uzz": 5833,
      "Ġfailure": 5834,
      "Ġ()": 5835,
      "ville": 5836,
      "ny": 5837,
      "cp": 5838,
      "Ġmit": 5839,
      "Ġsector": 5840,
      "Ġdetermined": 5841,
      "Ġfundamental": 5842,
      "Ġclick": 5843,
      "Ġchance": 5844,
      "Ġotherwise": 5845,
      "foo": 5846,
      "onent": 5847,
      "center": 5848,
      "Case": 5849,
      "bi": 5850,
      "ĠGeorge": 5851,
      "Ðµ": 5852,
      "ĠCup": 5853,
      "ĠInf": 5854,
      "Ġtoward": 5855,
      "Ġvehicle": 5856,
      "alian": 5857,
      "Ġ^": 5858,
      "za": 5859,
      "Ġbelief": 5860,
      "anging": 5861,
      "ographic": 5862,
      "Ġdegrees": 5863,
      "ĠOff": 5864,
      "à¥": 5865,
      "xml": 5866,
      "Ġexception": 5867,
      "onym": 5868,
      "Gener": 5869,
      "Config": 5870,
      "aven": 5871,
      "Ġoffering": 5872,
      "TO": 5873,
      "Ġdownload": 5874,
      "Ġlooks": 5875,
      "Ġriver": 5876,
      "Ġunivers": 5877,
      "ptions": 5878,
      "hedule": 5879,
      "ogen": 5880,
      "Ġderiv": 5881,
      ")),": 5882,
      "ĠĠĠĠĠĠĠĠĠĠĠĠĠĠĠĠĠĠĠĠĠĠĠĠĠ": 5883,
      "ao": 5884,
      "Ġdram": 5885,
      "Ġnotes": 5886,
      "static": 5887,
      "rows": 5888,
      "Ġnumpy": 5889,
      "ĠYear": 5890,
      "Ġvirtual": 5891,
      "imately": 5892,
      "Ġnative": 5893,
      "well": 5894,
      "Ġfavor": 5895,
      "Ġawareness": 5896,
      "ture": 5897,
      "Ġ90": 5898,
      "fty": 5899,
      "step": 5900,
      "Ġseven": 5901,
      "Ġapproaches": 5902,
      "ĠEnvironment": 5903,
      "Ġfemale": 5904,
      "olf": 5905,
      "ĠPen": 5906,
      "Ġprogramming": 5907,
      "Ġreduction": 5908,
      "Ġcourt": 5909,
      "ĠJe": 5910,
      "Ġ2022": 5911,
      "Ġelectron": 5912,
      "ĠMont": 5913,
      "amily": 5914,
      "ĠLearning": 5915,
      "Ġkwargs": 5916,
      "User": 5917,
      "Ġgrid": 5918,
      "ipped": 5919,
      "Ġlanguages": 5920,
      "Ġopened": 5921,
      "Ġminor": 5922,
      "Ġmanufacturing": 5923,
      "Ġdetailed": 5924,
      "produ": 5925,
      "']['": 5926,
      "Ġ80": 5927,
      "Ġblog": 5928,
      "Ġdivers": 5929,
      "Ġcir": 5930,
      "Ġrepresentation": 5931,
      "Ġtechnical": 5932,
      "Ġfine": 5933,
      "Ġoxygen": 5934,
      "ĠId": 5935,
      "ĠCourt": 5936,
      "task": 5937,
      "iant": 5938,
      "Under": 5939,
      "AME": 5940,
      "Ġsignificance": 5941,
      "sembly": 5942,
      "rant": 5943,
      "Ġwidth": 5944,
      "ĠMult": 5945,
      "Ġgir": 5946,
      "Ġfacilit": 5947,
      "quad": 5948,
      "opyright": 5949,
      "otic": 5950,
      "asure": 5951,
      "Ġintegration": 5952,
      "Ġformation": 5953,
      "Ġmotiv": 5954,
      "itors": 5955,
      "ĠPeople": 5956,
      "tty": 5957,
      "Ġ-*-": 5958,
      "Ġsides": 5959,
      "roph": 5960,
      "resource": 5961,
      "ĠBecause": 5962,
      "Ġcausing": 5963,
      "Ġenable": 5964,
      "ootball": 5965,
      "ĠFurther": 5966,
      "Ġdiabetes": 5967,
      "Ġhundred": 5968,
      "Ġfrequently": 5969,
      "icks": 5970,
      "Ġinflamm": 5971,
      "ĠUs": 5972,
      "Ġanyone": 5973,
      "strip": 5974,
      "inating": 5975,
      "Ġfert": 5976,
      "Ġsituations": 5977,
      "enty": 5978,
      "ĠJapanese": 5979,
      "Ġnutrition": 5980,
      "Ġdogs": 5981,
      "Ġselection": 5982,
      "vity": 5983,
      "Ġmist": 5984,
      "Ġteacher": 5985,
      "Ġrespectively": 5986,
      "Ġbodies": 5987,
      "Ġshowed": 5988,
      "Ġintegral": 5989,
      "txt": 5990,
      "Ġalt": 5991,
      "rations": 5992,
      "Ġdepth": 5993,
      ")$$": 5994,
      "ĠPlan": 5995,
      "Ġec": 5996,
      "Ġensures": 5997,
      "bed": 5998,
      "ĠSal": 5999,
      "85": 6000,
      "inity": 6001,
      "Ġ32": 6002,
      "ĠGoogle": 6003,
      "Ġpotentially": 6004,
      "âĶ": 6005,
      "anned": 6006,
      "ĠLou": 6007,
      "Ġprocedure": 6008,
      "PC": 6009,
      "Ġfilename": 6010,
      "only": 6011,
      "Ġprofessionals": 6012,
      "iat": 6013,
      "Ġboost": 6014,
      "Ġestimated": 6015,
      "\">": 6016,
      "Ġregarding": 6017,
      "Ġgenetic": 6018,
      "Ġrevolution": 6019,
      "ĠEnergy": 6020,
      "Ġconservation": 6021,
      "Ġcategory": 6022,
      "Ġrefers": 6023,
      "Ġmission": 6024,
      "Ġhappen": 6025,
      "Ġhappens": 6026,
      "ĠEv": 6027,
      "Ġ70": 6028,
      "Ġfailed": 6029,
      "ĠMount": 6030,
      "ircraft": 6031,
      "Ġnoise": 6032,
      "Ġnodes": 6033,
      "Ġempty": 6034,
      "Zbl": 6035,
      "Ġfederal": 6036,
      "96": 6037,
      "=(": 6038,
      "oted": 6039,
      "Ġoperating": 6040,
      "iverse": 6041,
      "aming": 6042,
      "itis": 6043,
      "Ġequivalent": 6044,
      "Ġvulner": 6045,
      "Ġvelocity": 6046,
      "ĠLeg": 6047,
      "Ġpeace": 6048,
      "Ġliterature": 6049,
      "ĠAny": 6050,
      "Ġsubsequ": 6051,
      "Ġ~": 6052,
      "Ġusage": 6053,
      "Read": 6054,
      "Ġast": 6055,
      "Ġrenew": 6056,
      "ĠDevelopment": 6057,
      "Ġelectricity": 6058,
      "enced": 6059,
      "Check": 6060,
      "Ġpip": 6061,
      "TH": 6062,
      "device": 6063,
      "uous": 6064,
      "rome": 6065,
      "Ġinterested": 6066,
      "Ġ2001": 6067,
      "Over": 6068,
      "Ġdescribe": 6069,
      "Ġthick": 6070,
      "cor": 6071,
      "ĠHen": 6072,
      "ometric": 6073,
      "Ġpicture": 6074,
      "Many": 6075,
      "Ġjoined": 6076,
      "Ġcolors": 6077,
      "Ġroots": 6078,
      "Ġwinter": 6079,
      "aughter": 6080,
      "lis": 6081,
      "Ġalgebra": 6082,
      "Dis": 6083,
      "Ġappearance": 6084,
      "Ġ2002": 6085,
      "Ġinteger": 6086,
      "look": 6087,
      "RL": 6088,
      "rency": 6089,
      "{}": 6090,
      "tical": 6091,
      "Ġtips": 6092,
      "Ġphysics": 6093,
      "Ġready": 6094,
      "Ġroll": 6095,
      "Ġsufficient": 6096,
      "ĠTwo": 6097,
      "Ġdirector": 6098,
      "Ġshift": 6099,
      "PU": 6100,
      "uuid": 6101,
      "lam": 6102,
      "ĠMake": 6103,
      "Ġbaby": 6104,
      "pc": 6105,
      "Ġbuy": 6106,
      "real": 6107,
      "71": 6108,
      "ĠTechnology": 6109,
      "Ġiron": 6110,
      "Ġconsists": 6111,
      "Ġresil": 6112,
      "Ġsymmet": 6113,
      "ansion": 6114,
      "Item": 6115,
      "ĠLine": 6116,
      "nings": 6117,
      "Ġdiscovered": 6118,
      "description": 6119,
      "EE": 6120,
      "Why": 6121,
      "unit": 6122,
      "ĠHall": 6123,
      "comple": 6124,
      "Ġwatch": 6125,
      "Ġsoft": 6126,
      "Ġlinked": 6127,
      "reement": 6128,
      "Ġmeasured": 6129,
      "Ġbirds": 6130,
      "roid": 6131,
      "ega": 6132,
      "oto": 6133,
      "Date": 6134,
      "mt": 6135,
      "Ġconducted": 6136,
      "ĠSy": 6137,
      "Ġmajority": 6138,
      "âĢĿ,": 6139,
      "ativity": 6140,
      "Ġfinally": 6141,
      "Ġindicate": 6142,
      "Ġtooth": 6143,
      "ky": 6144,
      "Class": 6145,
      "Ġemployees": 6146,
      "Ġcombined": 6147,
      "aters": 6148,
      "ĠStreet": 6149,
      "Ġalcohol": 6150,
      "Group": 6151,
      "bose": 6152,
      "umps": 6153,
      "fill": 6154,
      "iated": 6155,
      "ĠOlymp": 6156,
      "cls": 6157,
      "Ġconvers": 6158,
      "Ġreact": 6159,
      "Ġadvantage": 6160,
      "Ġwall": 6161,
      "................": 6162,
      "SA": 6163,
      "ĠExp": 6164,
      "Ġorganic": 6165,
      "Ġtold": 6166,
      "Ġmoist": 6167,
      "Ġchallenging": 6168,
      "infty": 6169,
      "ĠManagement": 6170,
      "Ġcollege": 6171,
      "Ġdra": 6172,
      "'].": 6173,
      ":`": 6174,
      "covery": 6175,
      "Ġ1990": 6176,
      "arant": 6177,
      "Ġinteractions": 6178,
      "Ġcamer": 6179,
      "Ġrepresented": 6180,
      "cf": 6181,
      "Ġvs": 6182,
      "Ġfalse": 6183,
      "Ġlisted": 6184,
      "Ġbed": 6185,
      "Ġpurposes": 6186,
      "My": 6187,
      "Ġbrother": 6188,
      "ĠWhy": 6189,
      "Ġannual": 6190,
      "Ġvoc": 6191,
      "Ġcollabor": 6192,
      "Ġlogger": 6193,
      "ĠIr": 6194,
      "'},": 6195,
      "Ġrail": 6196,
      "ĠSing": 6197,
      "ĠCentral": 6198,
      "Ġletter": 6199,
      "Ġcoding": 6200,
      "amps": 6201,
      "Ġstability": 6202,
      "Ġpregn": 6203,
      "MP": 6204,
      "Ġcredit": 6205,
      "Ġking": 6206,
      "Ġvehicles": 6207,
      "Ġanswers": 6208,
      "ĠLake": 6209,
      "Ġapprec": 6210,
      "Exception": 6211,
      "ĠGen": 6212,
      "Ġdirected": 6213,
      "Comm": 6214,
      "Ġreferred": 6215,
      "Ġprimarily": 6216,
      "ĠExpl": 6217,
      "Ġdriving": 6218,
      "Ġfill": 6219,
      "EC": 6220,
      "Ġdatetime": 6221,
      "aud": 6222,
      "Ġrecovery": 6223,
      "Ġprove": 6224,
      "stitution": 6225,
      "thlet": 6226,
      "ourse": 6227,
      "ĠFind": 6228,
      "Ġprotocol": 6229,
      "zil": 6230,
      "Ġbillion": 6231,
      "Ġliquid": 6232,
      "send": 6233,
      "ä¸": 6234,
      "Ġinteract": 6235,
      "Ġfootballers": 6236,
      "ĠOrgan": 6237,
      "ressed": 6238,
      "Ġcarried": 6239,
      "ï¼": 6240,
      "Ġcovered": 6241,
      "97": 6242,
      "Ġsuggests": 6243,
      "Ġmouth": 6244,
      "ĠMuseum": 6245,
      "ĠValueError": 6246,
      "Spec": 6247,
      "Ġcurve": 6248,
      "Ġseed": 6249,
      "Ġfruit": 6250,
      "Ġspot": 6251,
      "Ġstored": 6252,
      "ĠCompany": 6253,
      "Ġimpacts": 6254,
      "anged": 6255,
      "ĠService": 6256,
      "Ġcolum": 6257,
      "wait": 6258,
      "ĠâĪ": 6259,
      "Ġsecret": 6260,
      "DA": 6261,
      "sign": 6262,
      "Ġsurvey": 6263,
      "ĠParty": 6264,
      "di": 6265,
      "ala": 6266,
      "ĠPet": 6267,
      "Ġwoman": 6268,
      "Ġpand": 6269,
      "Info": 6270,
      "ibilities": 6271,
      "Ġillness": 6272,
      "Ġloop": 6273,
      "Ġencourag": 6274,
      "mail": 6275,
      "Ġgrant": 6276,
      "Ġunderlying": 6277,
      "Ġinh": 6278,
      "ĠTexas": 6279,
      "Ġfinite": 6280,
      "Ġinterface": 6281,
      "Ġreached": 6282,
      "olds": 6283,
      "Ġdjango": 6284,
      "ryst": 6285,
      "Ġteach": 6286,
      "sys": 6287,
      "Ġreports": 6288,
      "Ġinstitutions": 6289,
      "Ġcolumns": 6290,
      "Ġsen": 6291,
      "make": 6292,
      "ĠIsland": 6293,
      "Ġrect": 6294,
      "ĠCam": 6295,
      "Be": 6296,
      "Ġtf": 6297,
      "Ġmagnetic": 6298,
      "Ġunknown": 6299,
      "oved": 6300,
      "ribe": 6301,
      "Ġprompt": 6302,
      "ĠLi": 6303,
      ".;": 6304,
      "Ġinformed": 6305,
      "84": 6306,
      "road": 6307,
      "han": 6308,
      "lay": 6309,
      "ĠProt": 6310,
      "Ġcircuit": 6311,
      "perties": 6312,
      "Ġforeign": 6313,
      "points": 6314,
      "Ġfeedback": 6315,
      "Ġassociation": 6316,
      "ĠJesus": 6317,
      "lower": 6318,
      "irgin": 6319,
      "olean": 6320,
      "clusive": 6321,
      "Ġexperienced": 6322,
      "ĠNetwork": 6323,
      "Val": 6324,
      "Ġremote": 6325,
      "Ġcircum": 6326,
      "Ġexchange": 6327,
      "Ġplane": 6328,
      "Ġship": 6329,
      "Ġglob": 6330,
      "datetime": 6331,
      "asion": 6332,
      "td": 6333,
      "Ġindustries": 6334,
      "istical": 6335,
      "Ġns": 6336,
      "Ġwanted": 6337,
      "Ġprem": 6338,
      "ĠCOVID": 6339,
      "Ġbelieved": 6340,
      "istan": 6341,
      "job": 6342,
      "Ġinteraction": 6343,
      "Ġiter": 6344,
      "Ġincreasingly": 6345,
      "Ġhousehold": 6346,
      "admin": 6347,
      "Ġauthors": 6348,
      "called": 6349,
      "Ġartists": 6350,
      "ĠUN": 6351,
      "Ġflat": 6352,
      "Ġconfidence": 6353,
      "organ": 6354,
      "Ġdynamic": 6355,
      "87": 6356,
      "ĠProfess": 6357,
      ")/": 6358,
      "ĠOnce": 6359,
      "Ġhorm": 6360,
      "Ġimpos": 6361,
      "ĠTHE": 6362,
      "err": 6363,
      "Ġ'%": 6364,
      "Ġtemplate": 6365,
      "friend": 6366,
      "umin": 6367,
      "Ġprofile": 6368,
      "ĠCalcul": 6369,
      "Ġphilos": 6370,
      "ĠRob": 6371,
      "itage": 6372,
      "ĠSec": 6373,
      "Ġlatest": 6374,
      "ona": 6375,
      "Another": 6376,
      "Ġ${": 6377,
      "Ġdrop": 6378,
      "Ġresol": 6379,
      "Ġruns": 6380,
      "random": 6381,
      "State": 6382,
      "Ġcircle": 6383,
      "$$\\": 6384,
      "Ġhomes": 6385,
      "pk": 6386,
      "ĠDel": 6387,
      "ĠThrough": 6388,
      "oz": 6389,
      "Ġnutrients": 6390,
      "blem": 6391,
      "ĠJul": 6392,
      "Ġkeeping": 6393,
      "Ġdiscussion": 6394,
      "grad": 6395,
      "mult": 6396,
      "Hand": 6397,
      ":\\": 6398,
      "under": 6399,
      "Ġpassword": 6400,
      "Ġswitch": 6401,
      "ĠStand": 6402,
      "case": 6403,
      "Ġcognitive": 6404,
      "Ġmedicine": 6405,
      "inite": 6406,
      "ĠSuper": 6407,
      "arp": 6408,
      "ĠDivision": 6409,
      "ĠBuild": 6410,
      "Ġtopics": 6411,
      "Sim": 6412,
      "Ġmainly": 6413,
      "Ġfol": 6414,
      "Ġdiscover": 6415,
      "Ġassessment": 6416,
      "orter": 6417,
      "Ġspecifically": 6418,
      "Ġmac": 6419,
      "SI": 6420,
      "ĠRoyal": 6421,
      "Ġmal": 6422,
      "ĠException": 6423,
      "Ġoperator": 6424,
      "pm": 6425,
      "ĠMass": 6426,
      "Ġpolynomial": 6427,
      "lig": 6428,
      "ĠJer": 6429,
      "Ġconvert": 6430,
      "Ġadop": 6431,
      "Ġregul": 6432,
      "ĠAustralian": 6433,
      "ĠOper": 6434,
      "burg": 6435,
      "ested": 6436,
      "Ġsigned": 6437,
      "Ġ74": 6438,
      "Ġ35": 6439,
      "ĠThomas": 6440,
      "Ġdetail": 6441,
      "Ġmessages": 6442,
      "ĠSam": 6443,
      "Ġannounced": 6444,
      "Ġdetection": 6445,
      "Ġinsect": 6446,
      "Ġconclusion": 6447,
      "bour": 6448,
      "Ġmostly": 6449,
      "astern": 6450,
      "remove": 6451,
      "MO": 6452,
      "Ġregulations": 6453,
      "except": 6454,
      "ĠCatholic": 6455,
      "othing": 6456,
      "Ġtreatments": 6457,
      "Ġpark": 6458,
      "Ġregularly": 6459,
      "ĠMiss": 6460,
      "Ġtox": 6461,
      "Ġisol": 6462,
      "west": 6463,
      "idents": 6464,
      "ontal": 6465,
      "udd": 6466,
      "ulum": 6467,
      "Ġvoltage": 6468,
      "ĠCON": 6469,
      "Ġsoci": 6470,
      "gence": 6471,
      "Ġmeeting": 6472,
      "ĠÏ": 6473,
      "ĠWhether": 6474,
      "ĠZeal": 6475,
      "ĠMag": 6476,
      "Ġmanaging": 6477,
      "!!": 6478,
      "Ġconnections": 6479,
      "Ġintended": 6480,
      "Ġarchitecture": 6481,
      "Ġstock": 6482,
      "Ġ[\"": 6483,
      "Index": 6484,
      "ĠTor": 6485,
      "ca": 6486,
      "Ġholds": 6487,
      "++": 6488,
      "Ġpieces": 6489,
      "diff": 6490,
      "account": 6491,
      "Ġsupports": 6492,
      "Ġpush": 6493,
      "Ġsongs": 6494,
      "Ge": 6495,
      "Ġdecided": 6496,
      "Ġsurrounding": 6497,
      "Ġmarg": 6498,
      "Ġexcellent": 6499,
      "Ġfocused": 6500,
      "Ġcro": 6501,
      "Ġpython": 6502,
      "ĠSpanish": 6503,
      "ĠĠĠĠĠĠĠĠĠĠĠĠĠĠĠĠĠĠĠĠĠĠ": 6504,
      "gypt": 6505,
      "ĠEst": 6506,
      "omin": 6507,
      "Ġnoted": 6508,
      "Ġinnovation": 6509,
      "Ġinjury": 6510,
      "AI": 6511,
      "Ġdefe": 6512,
      "Ġparallel": 6513,
      "Ġinternet": 6514,
      "ialize": 6515,
      "wer": 6516,
      "ĠNov": 6517,
      "Ġspring": 6518,
      "ql": 6519,
      "system": 6520,
      "Ġproport": 6521,
      "2010": 6522,
      "cm": 6523,
      "Ġextended": 6524,
      "Ã¤": 6525,
      "Bl": 6526,
      "Ġspent": 6527,
      "Ġdepression": 6528,
      "Ġestimate": 6529,
      "Aut": 6530,
      "orough": 6531,
      "rams": 6532,
      "Ġexperts": 6533,
      "char": 6534,
      "Ġextremely": 6535,
      "Ġperiods": 6536,
      "Ġattacks": 6537,
      "next": 6538,
      "ilon": 6539,
      "ĠZealand": 6540,
      "ĠGold": 6541,
      "Ġserves": 6542,
      "Ġfraction": 6543,
      "94": 6544,
      "annels": 6545,
      "ĠMethod": 6546,
      "93": 6547,
      "Ġclinical": 6548,
      "estival": 6549,
      "Ġrelation": 6550,
      "Request": 6551,
      "Ġstudied": 6552,
      "Ġspiritual": 6553,
      "ĠStat": 6554,
      "Ġderived": 6555,
      "python": 6556,
      "Ġrein": 6557,
      "QL": 6558,
      "Ġtrou": 6559,
      "cat": 6560,
      "Ġarticles": 6561,
      "Ġengage": 6562,
      "ME": 6563,
      "Ġcompute": 6564,
      "Ġraised": 6565,
      "ĠBre": 6566,
      "Ġrestrict": 6567,
      "Ġshell": 6568,
      "Ġparticipants": 6569,
      "Ġplatforms": 6570,
      "Ġconcentration": 6571,
      "ows": 6572,
      "ĠModel": 6573,
      "Ġelection": 6574,
      "Ġpal": 6575,
      "Ġdental": 6576,
      "Ġtit": 6577,
      "Ġdivided": 6578,
      "reshold": 6579,
      "Ġlies": 6580,
      "Inter": 6581,
      "anation": 6582,
      "Ġslightly": 6583,
      "ĠGovernment": 6584,
      "nce": 6585,
      "500": 6586,
      "Ġencourage": 6587,
      "Ġhypot": 6588,
      "Ġlearned": 6589,
      "Ġtraffic": 6590,
      "eties": 6591,
      "ĠSoftware": 6592,
      "Ġsaying": 6593,
      "Dict": 6594,
      "Ġtissue": 6595,
      "ĠWhite": 6596,
      "ĠGNU": 6597,
      "Ġeast": 6598,
      "ĠGreek": 6599,
      "tery": 6600,
      "ART": 6601,
      "Ġremaining": 6602,
      "Ġcompetition": 6603,
      "sigma": 6604,
      "ĠDesign": 6605,
      "Ġinvent": 6606,
      "ĠMem": 6607,
      "Ġfamous": 6608,
      "Ġdisorders": 6609,
      "ĠAward": 6610,
      "essions": 6611,
      "gal": 6612,
      "ĠSpace": 6613,
      "Ġdivision": 6614,
      "Ġclearly": 6615,
      "VER": 6616,
      "pload": 6617,
      "').": 6618,
      "Ġsensitive": 6619,
      "Ġaircraft": 6620,
      "Ð°": 6621,
      "Ġheader": 6622,
      "ĠKore": 6623,
      "Per": 6624,
      "ionary": 6625,
      "ĠControl": 6626,
      "alog": 6627,
      "Ġsurpr": 6628,
      "ĠFranc": 6629,
      "ura": 6630,
      "Ġstarts": 6631,
      "\"],": 6632,
      "Table": 6633,
      "Ġappeared": 6634,
      "Ġparam": 6635,
      "pred": 6636,
      "password": 6637,
      "ĠVis": 6638,
      "Ġsin": 6639,
      "Note": 6640,
      "Ġmanif": 6641,
      "Ġamounts": 6642,
      "Ġhoriz": 6643,
      "Ġtreated": 6644,
      "Ġkilled": 6645,
      "vec": 6646,
      "Ġstars": 6647,
      "Ġpromoting": 6648,
      "Ġcmd": 6649,
      "Ġarrang": 6650,
      "ĠRobert": 6651,
      "ĠCanadian": 6652,
      "CS": 6653,
      "Me": 6654,
      "Ġfinished": 6655,
      "Ġinstrument": 6656,
      "Ġstated": 6657,
      "Ġchronic": 6658,
      "FL": 6659,
      "language": 6660,
      "Ġconsequences": 6661,
      "Ra": 6662,
      "Ġphenomen": 6663,
      "Des": 6664,
      "Ġelev": 6665,
      "}}\\": 6666,
      "CharField": 6667,
      "Ġconstraint": 6668,
      "Ġdesired": 6669,
      "Size": 6670,
      "Ġfounded": 6671,
      "Ġlegis": 6672,
      "ained": 6673,
      "ulf": 6674,
      "Ġwest": 6675,
      "Ġnull": 6676,
      "bt": 6677,
      "ella": 6678,
      "Ġgenus": 6679,
      "According": 6680,
      "ĠChe": 6681,
      "92": 6682,
      "ba": 6683,
      "urd": 6684,
      "rat": 6685,
      "eles": 6686,
      "ĠAnn": 6687,
      "Ġseconds": 6688,
      "Ġstable": 6689,
      "Ġbranch": 6690,
      "ped": 6691,
      "ements": 6692,
      "ora": 6693,
      "Ġtruth": 6694,
      "Ġreplaced": 6695,
      "Ð¾": 6696,
      "ĠMer": 6697,
      "estamp": 6698,
      "Ġtried": 6699,
      "views": 6700,
      "Do": 6701,
      "vm": 6702,
      "ITY": 6703,
      "Ġfluid": 6704,
      "Ġfindings": 6705,
      "usiness": 6706,
      "ĠMad": 6707,
      "Ġcalls": 6708,
      "Ġterrit": 6709,
      "Ġmask": 6710,
      "Ġdestroy": 6711,
      "Ġbudget": 6712,
      "Ġsupporting": 6713,
      "Ġhaz": 6714,
      "fn": 6715,
      "Ġdtype": 6716,
      "Ġnuclear": 6717,
      "Ġvess": 6718,
      "Ġhelped": 6719,
      "edy": 6720,
      "Ġ::": 6721,
      "Ġboundary": 6722,
      "Ġmedium": 6723,
      "Ġflag": 6724,
      "Ġexistence": 6725,
      "tree": 6726,
      "ĠIP": 6727,
      "Ġfoundation": 6728,
      "Ġmathematical": 6729,
      "Ġdocuments": 6730,
      "ĠBoth": 6731,
      "81": 6732,
      "KE": 6733,
      "ĠMexico": 6734,
      "sem": 6735,
      "stop": 6736,
      "Ġdisorder": 6737,
      "Ġaid": 6738,
      "Ġscal": 6739,
      "ĠCopyright": 6740,
      "ĠJun": 6741,
      "Ġkm": 6742,
      "Ġmeasurement": 6743,
      "ĠExper": 6744,
      "Ġperhaps": 6745,
      "ĠVer": 6746,
      "Ġbeneficial": 6747,
      "Box": 6748,
      "opes": 6749,
      "Ġwife": 6750,
      "Ġ500": 6751,
      "Ġchosen": 6752,
      "Ġgoods": 6753,
      "Ġopin": 6754,
      "what": 6755,
      "ĠLu": 6756,
      "ĠPM": 6757,
      "track": 6758,
      "Ġcreates": 6759,
      "Ġcollaboration": 6760,
      "Ġfunctional": 6761,
      "big": 6762,
      "ume": 6763,
      "Ġassume": 6764,
      "Ġblocks": 6765,
      "aser": 6766,
      "Go": 6767,
      "Ġmarried": 6768,
      "ologist": 6769,
      "inant": 6770,
      "Ġonto": 6771,
      "riate": 6772,
      "Ġaccessible": 6773,
      "Ġseeds": 6774,
      "pute": 6775,
      "Ġtrad": 6776,
      "prefix": 6777,
      "Ġbone": 6778,
      "yles": 6779,
      "ĠEvery": 6780,
      "Ġcyber": 6781,
      "Ġfeeling": 6782,
      "Ġjoin": 6783,
      "assertTrue": 6784,
      "div": 6785,
      "Ġple": 6786,
      "Ġdf": 6787,
      "pping": 6788,
      "venue": 6789,
      "ita": 6790,
      "ernel": 6791,
      "ĠWell": 6792,
      "Ġdie": 6793,
      "ĠMathematics": 6794,
      "First": 6795,
      "Ġrecycl": 6796,
      "Ġadvice": 6797,
      "Ġwire": 6798,
      "ashion": 6799,
      "oose": 6800,
      "Ġdeliver": 6801,
      "Ġcalculated": 6802,
      "Ġroles": 6803,
      "Ġlimits": 6804,
      "HT": 6805,
      "header": 6806,
      "}_": 6807,
      "Ġdecades": 6808,
      "Ġshowing": 6809,
      "IB": 6810,
      "Ġcorrel": 6811,
      "itness": 6812,
      "Ġspin": 6813,
      "ĠMicro": 6814,
      "ĠAp": 6815,
      "Ġsand": 6816,
      "ĠIsrael": 6817,
      "Ġ1980": 6818,
      "itar": 6819,
      "metadata": 6820,
      "ĠLog": 6821,
      "Ġinsert": 6822,
      "oom": 6823,
      "direct": 6824,
      "Ġwriter": 6825,
      "rays": 6826,
      "Ġpil": 6827,
      "82": 6828,
      "Ġgender": 6829,
      "Ġhour": 6830,
      "Ġprepared": 6831,
      "draw": 6832,
      "Ġfreedom": 6833,
      "store": 6834,
      "istant": 6835,
      "orted": 6836,
      "Pr": 6837,
      "Ġobvious": 6838,
      "ATION": 6839,
      "Ġbinary": 6840,
      "Ġjobs": 6841,
      "Ġvoice": 6842,
      "location": 6843,
      "Ġdrugs": 6844,
      "Ġtheorem": 6845,
      "ĠRussia": 6846,
      "spe": 6847,
      "Ġprecision": 6848,
      "Ġsteel": 6849,
      "Ġvent": 6850,
      "mic": 6851,
      "Ġelectro": 6852,
      "Ġflood": 6853,
      "pool": 6854,
      "Ġhuge": 6855,
      "DS": 6856,
      "ĠStep": 6857,
      "Ġdimension": 6858,
      "Ġartificial": 6859,
      "ĠEgypt": 6860,
      "domain": 6861,
      "Ġpollution": 6862,
      "Ġcrypt": 6863,
      "mask": 6864,
      "common": 6865,
      "Ġcitizens": 6866,
      "Ġformal": 6867,
      "null": 6868,
      "Ġmel": 6869,
      "Ġdespite": 6870,
      "Ġpopulations": 6871,
      "ensus": 6872,
      "lick": 6873,
      "Ġsignals": 6874,
      "Ġdoi": 6875,
      "Ġrender": 6876,
      "Ġmixed": 6877,
      "Ġwear": 6878,
      "edge": 6879,
      "Ġturned": 6880,
      "Ġuncertain": 6881,
      "Ġinfections": 6882,
      "CR": 6883,
      "non": 6884,
      "Ġmiles": 6885,
      "Ġcustomer": 6886,
      "dimensional": 6887,
      "Ġspeech": 6888,
      "Response": 6889,
      "ĠCreate": 6890,
      "Ġyellow": 6891,
      "ĠJack": 6892,
      "83": 6893,
      "itt": 6894,
      "Ġgrad": 6895,
      "Ġfacilities": 6896,
      "Ġinner": 6897,
      "Ġarm": 6898,
      "Ġtoken": 6899,
      "ĠTV": 6900,
      "Ġroutine": 6901,
      "ĠTop": 6902,
      "Ġnarr": 6903,
      "Ġreliable": 6904,
      "Ġemotions": 6905,
      "Ġkeys": 6906,
      "Ġfab": 6907,
      "Ġregist": 6908,
      "Ġradiation": 6909,
      "Of": 6910,
      "ĠSeries": 6911,
      "Ġstatistics": 6912,
      "Ġbeautiful": 6913,
      "Ġprinciple": 6914,
      "iral": 6915,
      "Ġdataset": 6916,
      "ategory": 6917,
      "ĠSystems": 6918,
      "Ġfirm": 6919,
      "true": 6920,
      "Ass": 6921,
      "Ġextension": 6922,
      "ĠMichael": 6923,
      "Ġoriginally": 6924,
      "bling": 6925,
      "}.": 6926,
      "Ġaer": 6927,
      "Ġwealth": 6928,
      "ĠPract": 6929,
      "ĠAnalysis": 6930,
      "idx": 6931,
      "making": 6932,
      "ĠSaf": 6933,
      "More": 6934,
      "vol": 6935,
      "exists": 6936,
      "Ġsubstant": 6937,
      "ĠEconom": 6938,
      "Ġbreed": 6939,
      "Ġunf": 6940,
      "Ġleaving": 6941,
      "Ġmeant": 6942,
      "bas": 6943,
      "mas": 6944,
      "GB": 6945,
      "UP": 6946,
      "ĠAtl": 6947,
      "argument": 6948,
      "src": 6949,
      "Ġlifestyle": 6950,
      "Ġextreme": 6951,
      "Ġimplemented": 6952,
      "emporary": 6953,
      "Ġlabels": 6954,
      "lers": 6955,
      "Node": 6956,
      "sey": 6957,
      "asket": 6958,
      "NO": 6959,
      "ĠHome": 6960,
      "yr": 6961,
      "Ġ//": 6962,
      "ĠKingdom": 6963,
      "uls": 6964,
      "Ġhun": 6965,
      "They": 6966,
      "iced": 6967,
      "Ġmathematics": 6968,
      "CA": 6969,
      "itory": 6970,
      "ki": 6971,
      "91": 6972,
      "Ġreduces": 6973,
      "Ġkid": 6974,
      "ĠAsia": 6975,
      "ĠJose": 6976,
      "ĠMusic": 6977,
      "ortunately": 6978,
      "Ġdedicated": 6979,
      "Ġemergency": 6980,
      "Ġmunic": 6981,
      "IO": 6982,
      "ussian": 6983,
      "liament": 6984,
      "Ġvast": 6985,
      "Ġeditor": 6986,
      "TER": 6987,
      "Ġhelpful": 6988,
      "osa": 6989,
      "Ġmachines": 6990,
      "icip": 6991,
      "Ġcris": 6992,
      "Ġaffects": 6993,
      "then": 6994,
      "Sp": 6995,
      "Ġ'.": 6996,
      "Ġlocations": 6997,
      "||": 6998,
      "Ġtun": 6999,
      "ĠEmp": 7000,
      "anda": 7001,
      ")[": 7002,
      "ĠPo": 7003,
      "ĠFlor": 7004,
      "Ġfeelings": 7005,
      "orig": 7006,
      "stone": 7007,
      "ĠInternet": 7008,
      "Ġrelax": 7009,
      "abits": 7010,
      "cules": 7011,
      "Ġparticle": 7012,
      "ĠClub": 7013,
      "Ġdifferential": 7014,
      "ĠBal": 7015,
      "ĠAmericans": 7016,
      "Ġupdated": 7017,
      "ictor": 7018,
      "elihood": 7019,
      "Ġfloor": 7020,
      "ĠRun": 7021,
      "Ġ1970": 7022,
      "Rem": 7023,
      "Ġperspective": 7024,
      "Ġ>=": 7025,
      "Ġthousands": 7026,
      "Ġdecrease": 7027,
      "Ġsac": 7028,
      "Ġleader": 7029,
      "Ġauthent": 7030,
      "Ġbright": 7031,
      "Ġinstalled": 7032,
      "Frame": 7033,
      "enth": 7034,
      "istent": 7035,
      "Ġdebut": 7036,
      "Ġremained": 7037,
      "Ġthri": 7038,
      "ĠNon": 7039,
      "Ġpred": 7040,
      "Ġrul": 7041,
      "effect": 7042,
      "iki": 7043,
      "ĠAcademy": 7044,
      "perm": 7045,
      "Ġcm": 7046,
      "ĠCommission": 7047,
      "rot": 7048,
      "Ġlayers": 7049,
      "ĠShow": 7050,
      "ĠBrazil": 7051,
      "fs": 7052,
      "car": 7053,
      "ilation": 7054,
      "Ġconflict": 7055,
      "Ġgrand": 7056,
      "Ġattribute": 7057,
      "abel": 7058,
      "riage": 7059,
      "Ġindicates": 7060,
      "Ġguidance": 7061,
      "ĠRoad": 7062,
      "ester": 7063,
      "Ġconven": 7064,
      "ĠFrank": 7065,
      "sible": 7066,
      "That": 7067,
      "('/": 7068,
      "access": 7069,
      "Ġdriver": 7070,
      "Ġinflammation": 7071,
      "Ġpolice": 7072,
      "Ġdeeper": 7073,
      "Ġcollected": 7074,
      "Ġmilk": 7075,
      "ĠVari": 7076,
      "Ġpool": 7077,
      "Ġmanager": 7078,
      "ĠLong": 7079,
      "cies": 7080,
      "ĠParis": 7081,
      "bridge": 7082,
      "Ġantib": 7083,
      "Ġdeploy": 7084,
      "ĠLand": 7085,
      "Line": 7086,
      "ULT": 7087,
      "ĠAdv": 7088,
      "blank": 7089,
      "Ġcutting": 7090,
      "parser": 7091,
      "Ġfaith": 7092,
      "ĠConsider": 7093,
      "ounded": 7094,
      "Ġmeasurements": 7095,
      "ĠCD": 7096,
      "Ġrain": 7097,
      "ĠFood": 7098,
      "del": 7099,
      "rey": 7100,
      "Ġopening": 7101,
      "Ġclim": 7102,
      "Ġcomputing": 7103,
      "Ġobservations": 7104,
      "Ġbrief": 7105,
      "Ġcomposition": 7106,
      "ĠLife": 7107,
      "ette": 7108,
      "Ġsexual": 7109,
      "ĠCat": 7110,
      "Ġpretty": 7111,
      "Ġtor": 7112,
      "Ġadvoc": 7113,
      "illa": 7114,
      "Ġpositions": 7115,
      "ican": 7116,
      "meta": 7117,
      "ĠField": 7118,
      "ĠPhysics": 7119,
      "Ġ{\"": 7120,
      "Ġ1999": 7121,
      "soft": 7122,
      "Ġfont": 7123,
      "ĠFig": 7124,
      ")+": 7125,
      "tx": 7126,
      "Ġatmosphere": 7127,
      "using": 7128,
      "hu": 7129,
      "Ġabsolute": 7130,
      "Ġbegins": 7131,
      "Ġcreative": 7132,
      "Ġcapabilities": 7133,
      "ĠMax": 7134,
      "Ġharmful": 7135,
      "ieving": 7136,
      "ĠVirgin": 7137,
      "ĠHuman": 7138,
      "Ġrobust": 7139,
      "ÃĹ": 7140,
      "ĠInstead": 7141,
      "total": 7142,
      "Ġpeak": 7143,
      "Cons": 7144,
      "During": 7145,
      "2015": 7146,
      "ĠCongress": 7147,
      "ĠWeb": 7148,
      "ĠWomen": 7149,
      "mean": 7150,
      "ĠGal": 7151,
      "Ġdelay": 7152,
      "Ġcere": 7153,
      "Ġartist": 7154,
      "Ġ1960": 7155,
      "Ġthoughts": 7156,
      "Pre": 7157,
      "ĠUser": 7158,
      "ye": 7159,
      "2014": 7160,
      "Ġsettle": 7161,
      "nodes": 7162,
      "Ġexpansion": 7163,
      "Ġagricultural": 7164,
      "ĠAND": 7165,
      "imer": 7166,
      "Ġelectronic": 7167,
      "Ġsustainability": 7168,
      "Ġvisible": 7169,
      "Ġcapture": 7170,
      "elled": 7171,
      "Ġ64": 7172,
      "}$.": 7173,
      "Ġstations": 7174,
      "Ġadvantages": 7175,
      "cut": 7176,
      "Ġdiscussed": 7177,
      "ĠDNA": 7178,
      "igan": 7179,
      "Ġengaging": 7180,
      "Count": 7181,
      "ĠCommon": 7182,
      "ola": 7183,
      "Ġingred": 7184,
      "kin": 7185,
      "Ġtal": 7186,
      "reland": 7187,
      "Ġpresident": 7188,
      "onents": 7189,
      "ĠNOT": 7190,
      "ĠWindows": 7191,
      "Ġprovider": 7192,
      "entials": 7193,
      "Ġoffered": 7194,
      "king": 7195,
      "umer": 7196,
      "Ġring": 7197,
      "Ġmaps": 7198,
      "ĠBest": 7199,
      "Ġ..": 7200,
      "Ġ(Ă": 7201,
      "Ġevaluate": 7202,
      "Ġuniform": 7203,
      "---": 7204,
      "Ġreverse": 7205,
      "Ġprices": 7206,
      "DB": 7207,
      "Ġera": 7208,
      "ĠĠĊ": 7209,
      "Ġprocedures": 7210,
      "ersonal": 7211,
      "utch": 7212,
      "Ġflowers": 7213,
      "ĠLouis": 7214,
      "Point": 7215,
      "^{\\": 7216,
      "Step": 7217,
      "Men": 7218,
      "swith": 7219,
      "Part": 7220,
      "late": 7221,
      "Ġexplicit": 7222,
      "else": 7223,
      "Ġmanner": 7224,
      "hema": 7225,
      "dt": 7226,
      "ĠJewish": 7227,
      "Ġ'\\": 7228,
      "aph": 7229,
      "Ġexperiments": 7230,
      "roke": 7231,
      "this": 7232,
      "(*": 7233,
      "ĠĠĠĠĠĠĠĠĠĠĠĠĠĠĠĠĠĠĠĠĠĠĠĠĠĠĠĠĠĠĠĠĠĠĠ": 7234,
      "Ġprepare": 7235,
      "pers": 7236,
      "Ġsurgery": 7237,
      "ĠCharles": 7238,
      "ĠScott": 7239,
      "ĠChem": 7240,
      "security": 7241,
      "Ġmetab": 7242,
      "Ġmatches": 7243,
      "Ġlambda": 7244,
      "Ġmobile": 7245,
      "Ġskill": 7246,
      "Ġstack": 7247,
      "Ġseeking": 7248,
      "rowser": 7249,
      "2016": 7250,
      "ĠDev": 7251,
      "Ġresponsibility": 7252,
      "Ġhydrogen": 7253,
      "Ġresolution": 7254,
      "Ġdiversity": 7255,
      "ĠFrancis": 7256,
      "ĠTer": 7257,
      "Ġfif": 7258,
      "Ġalle": 7259,
      "Ġtypical": 7260,
      "ATH": 7261,
      "Ġoral": 7262,
      "arn": 7263,
      "hedul": 7264,
      "contain": 7265,
      "TY": 7266,
      "Ġfrag": 7267,
      "Ġfort": 7268,
      "]))": 7269,
      "mega": 7270,
      "itivity": 7271,
      "Ġfamiliar": 7272,
      "achine": 7273,
      "delta": 7274,
      "Ġdir": 7275,
      "Since": 7276,
      "Ġfasc": 7277,
      "2000": 7278,
      "Ġclar": 7279,
      "Ġworldwide": 7280,
      "ĠAPI": 7281,
      "Ġclosely": 7282,
      "Ġpure": 7283,
      "plicated": 7284,
      "ÂłÂłÂłÂł": 7285,
      "ĠText": 7286,
      "ĠPeter": 7287,
      "Ġachieved": 7288,
      "ĠTable": 7289,
      "Ġcourses": 7290,
      "ĠĠĠĠĠĠĠĠĠĠĠĠĠĠĠĠĠĠĠĠĠĠĠĠĠĠ": 7291,
      "Ġfib": 7292,
      "Ġroute": 7293,
      "Ġcraft": 7294,
      "Ġ1000": 7295,
      "Ġcycl": 7296,
      "game": 7297,
      "Ġquad": 7298,
      "$$.": 7299,
      "Ġradius": 7300,
      "Ġbalanced": 7301,
      "Ps": 7302,
      "ĠSant": 7303,
      "Ġpros": 7304,
      "Ġ$(": 7305,
      "Ġcorrectly": 7306,
      "Widget": 7307,
      "Ġgal": 7308,
      "Ġmitig": 7309,
      "Ġlaun": 7310,
      "Ġcritic": 7311,
      "Ġcomplexity": 7312,
      "ipping": 7313,
      "Ġmanaged": 7314,
      "execute": 7315,
      "Ġneuro": 7316,
      "Ġguarant": 7317,
      "Co": 7318,
      "Art": 7319,
      "ĠAnother": 7320,
      "atom": 7321,
      "Ġhospital": 7322,
      "Ġinterests": 7323,
      "2013": 7324,
      "Fact": 7325,
      "Mat": 7326,
      "unct": 7327,
      "package": 7328,
      "Ġcontrolled": 7329,
      "Ġwaves": 7330,
      "Ġsuccessfully": 7331,
      "while": 7332,
      "Ġconvent": 7333,
      "cript": 7334,
      "Ġwait": 7335,
      "igenous": 7336,
      "ĠIll": 7337,
      "ĠPan": 7338,
      "Ġvitamin": 7339,
      "Ġgene": 7340,
      "EO": 7341,
      "rative": 7342,
      "SO": 7343,
      "Ġaren": 7344,
      "Ġmovements": 7345,
      "Ġongoing": 7346,
      "example": 7347,
      "ĠSmith": 7348,
      "column": 7349,
      "document": 7350,
      "Ġcustomers": 7351,
      "Ġstre": 7352,
      "Ġcompliance": 7353,
      "Ġoffset": 7354,
      "ĠCare": 7355,
      "ĠInformation": 7356,
      "Ġvegetables": 7357,
      "Comp": 7358,
      "Ġdesigns": 7359,
      "train": 7360,
      "ĠItalian": 7361,
      "Our": 7362,
      "Ġinject": 7363,
      ")):": 7364,
      "ĠImport": 7365,
      "nic": 7366,
      "Ġsetup": 7367,
      "ĠSpr": 7368,
      "Ġ2023": 7369,
      "ĠStart": 7370,
      "ollowing": 7371,
      "iler": 7372,
      "ĠTown": 7373,
      "ena": 7374,
      "quality": 7375,
      "ĠGood": 7376,
      "ĠGrand": 7377,
      "NAME": 7378,
      "RA": 7379,
      "oking": 7380,
      "Ġkept": 7381,
      "She": 7382,
      "oviet": 7383,
      "Ġexposed": 7384,
      "Ġdynamics": 7385,
      "Ġinnovative": 7386,
      "2017": 7387,
      "ĠMedic": 7388,
      "aturally": 7389,
      "Ġodd": 7390,
      "Ġdimensions": 7391,
      "'d": 7392,
      "rary": 7393,
      "Ġconsidering": 7394,
      "ĠProcess": 7395,
      "Ġtrial": 7396,
      "ĠSign": 7397,
      "vas": 7398,
      "Ġhearing": 7399,
      "ĠUnderstanding": 7400,
      "Ġisland": 7401,
      "riculum": 7402,
      "rical": 7403,
      "}=": 7404,
      "Ġpartial": 7405,
      "Ġperman": 7406,
      "abling": 7407,
      "ja": 7408,
      "]['": 7409,
      "Ġwhom": 7410,
      "inals": 7411,
      "azine": 7412,
      "Ġbattle": 7413,
      "Other": 7414,
      "sn": 7415,
      "Ear": 7416,
      "ĠForce": 7417,
      "Ġsalt": 7418,
      "Ġrecognition": 7419,
      "ĠDu": 7420,
      "Ġ1998": 7421,
      "cers": 7422,
      "Ġocean": 7423,
      "Ġgrass": 7424,
      "ĠWAR": 7425,
      "Ġchemicals": 7426,
      "ighter": 7427,
      "Ġtrends": 7428,
      "ĠCap": 7429,
      "QU": 7430,
      "Ġprev": 7431,
      "Ġcouple": 7432,
      "Ġnor": 7433,
      "Ġfarmers": 7434,
      "Ġguidelines": 7435,
      "Ġforced": 7436,
      "Ġalbums": 7437,
      "Ġvictim": 7438,
      "Ġmechanism": 7439,
      "Ġsecondary": 7440,
      "Ġexpressed": 7441,
      "Ġstages": 7442,
      "ĠLim": 7443,
      "Ġtransportation": 7444,
      "ĠAR": 7445,
      "ãĥ": 7446,
      "Ġacts": 7447,
      "Build": 7448,
      "'''": 7449,
      "ĠANY": 7450,
      "}}$": 7451,
      "URL": 7452,
      "IST": 7453,
      "Ġcolle": 7454,
      "rightarrow": 7455,
      "SP": 7456,
      "Ġrough": 7457,
      "Ġclassical": 7458,
      "igital": 7459,
      "Ġlived": 7460,
      "ĠUSA": 7461,
      "TTP": 7462,
      "Ġtransformation": 7463,
      "Ġembed": 7464,
      "Ġfigures": 7465,
      "ĠURL": 7466,
      "Ġlimitations": 7467,
      "itz": 7468,
      "Ġ<=": 7469,
      "ĠNumber": 7470,
      "Ġstone": 7471,
      "iled": 7472,
      "ĠLord": 7473,
      "itter": 7474,
      "Ġrows": 7475,
      "Ġcompare": 7476,
      "atial": 7477,
      "acific": 7478,
      "grid": 7479,
      "aren": 7480,
      "rand": 7481,
      "Ġleadership": 7482,
      "Ġ1996": 7483,
      "results": 7484,
      "Ġaudience": 7485,
      "Ġbutton": 7486,
      "hash": 7487,
      "ocratic": 7488,
      "world": 7489,
      "tk": 7490,
      "Image": 7491,
      "ĠCult": 7492,
      "Ġfiber": 7493,
      "icens": 7494,
      "cluded": 7495,
      "ĠGlobal": 7496,
      "Ġrecognize": 7497,
      "escription": 7498,
      "Ġdocumentation": 7499,
      "Ġletters": 7500,
      "Ġdiagnosis": 7501,
      "ĠOld": 7502,
      "ato": 7503,
      "ĠArab": 7504,
      "Ġautomatically": 7505,
      "Ġ75": 7506,
      "Ġclassroom": 7507,
      "Ġwa": 7508,
      "Ġfract": 7509,
      "Ġkill": 7510,
      "circ": 7511,
      "Ġlatter": 7512,
      "idity": 7513,
      "Tra": 7514,
      "Ġerr": 7515,
      "Ã³n": 7516,
      "Ġimprovement": 7517,
      "Ġheav": 7518,
      "Ġstands": 7519,
      "ads": 7520,
      "Ġyouth": 7521,
      "Ġnit": 7522,
      "Ġresponses": 7523,
      "inet": 7524,
      "Delta": 7525,
      "gers": 7526,
      "va": 7527,
      "ĠĠĠĠĠĠĠĠĠĠĠĠĠĠĠĠĠĠĠĠĠĠĠĠĠĠĠĠĠ": 7528,
      "ouns": 7529,
      "username": 7530,
      "ĠâĪĴ": 7531,
      "Ġtriangle": 7532,
      "Ġdrawing": 7533,
      "Ġsouthern": 7534,
      "asp": 7535,
      "ĠFigure": 7536,
      "Ġfruits": 7537,
      "oded": 7538,
      "Ġtensor": 7539,
      "Ġdaughter": 7540,
      "cr": 7541,
      "ĠCarol": 7542,
      "Ġtemp": 7543,
      "Ġprofessor": 7544,
      "uri": 7545,
      "eq": 7546,
      "Ġ\"%": 7547,
      "Ġrecognized": 7548,
      "Ġchapter": 7549,
      "Ġsharing": 7550,
      "ologists": 7551,
      "osc": 7552,
      "Ġversions": 7553,
      "ali": 7554,
      "Ġcenturies": 7555,
      "Ġbehaviour": 7556,
      "IF": 7557,
      "abil": 7558,
      "ĠÂ·": 7559,
      "second": 7560,
      "ĠCommit": 7561,
      "ĠCamp": 7562,
      "ĠRet": 7563,
      "ĠBill": 7564,
      "ishop": 7565,
      "Ġnorthern": 7566,
      "Ġdistingu": 7567,
      "Ġcultiv": 7568,
      "ĠĠĠĠĠĠĠĠĠĠĠĠĠĠĠĠĠĠĠĠĠĠĠĠĠĠĠĠ": 7569,
      "Ġultimately": 7570,
      "gest": 7571,
      "bia": 7572,
      "Ġvibr": 7573,
      "utf": 7574,
      "creen": 7575,
      "Ġbeauty": 7576,
      "anes": 7577,
      "Ġtransmission": 7578,
      "friendly": 7579,
      "Ġmarked": 7580,
      "Ġparties": 7581,
      "Ġbow": 7582,
      "ancer": 7583,
      "ĠOh": 7584,
      "lean": 7585,
      "Ġrecip": 7586,
      "ĠTom": 7587,
      "cknow": 7588,
      "Ġevaluation": 7589,
      "ĠTw": 7590,
      "\"):": 7591,
      "eless": 7592,
      "ĠAM": 7593,
      "shot": 7594,
      "Ġopposite": 7595,
      "}}{": 7596,
      "Ġspend": 7597,
      "Ġfourth": 7598,
      "dot": 7599,
      "Ġcalc": 7600,
      ")-": 7601,
      "TestCase": 7602,
      "Ġsampl": 7603,
      "CM": 7604,
      "Ġsell": 7605,
      "logger": 7606,
      "Ġgather": 7607,
      "Ġmultipl": 7608,
      "ãĤ": 7609,
      "Ġmort": 7610,
      "Ġmaxim": 7611,
      "Ġsan": 7612,
      "Ġappointed": 7613,
      "Ġcrisis": 7614,
      "help": 7615,
      "Ġfle": 7616,
      "lements": 7617,
      "zone": 7618,
      "Ġdangerous": 7619,
      "Ġpairs": 7620,
      "Ġcomparison": 7621,
      "Ġuns": 7622,
      "2018": 7623,
      "Ġpump": 7624,
      "Ġ72": 7625,
      "Ġhidden": 7626,
      "Ġsounds": 7627,
      "ĠBase": 7628,
      "Ġresidents": 7629,
      "ĠItaly": 7630,
      "Ġbehaviors": 7631,
      "Ġextensive": 7632,
      "pub": 7633,
      "Back": 7634,
      "aval": 7635,
      "Ġsummary": 7636,
      "Ġaccounts": 7637,
      "ĠWil": 7638,
      "ĠEnd": 7639,
      "ĠRichard": 7640,
      "Ġviolence": 7641,
      "Ġagent": 7642,
      "nam": 7643,
      "Raises": 7644,
      "ĠHy": 7645,
      "ĠSpe": 7646,
      "Ġgrade": 7647,
      "Ġhabits": 7648,
      "cap": 7649,
      "ailability": 7650,
      "Ġmultip": 7651,
      "ĠFact": 7652,
      "2008": 7653,
      "ker": 7654,
      "English": 7655,
      "Ġexercises": 7656,
      "ĠChildren": 7657,
      "Ġsuc": 7658,
      "Ġwalls": 7659,
      "bur": 7660,
      "\",\"": 7661,
      "$-": 7662,
      "101": 7663,
      "ett": 7664,
      "Ġtut": 7665,
      "Ġbreast": 7666,
      "rates": 7667,
      "riers": 7668,
      "Ġ73": 7669,
      "Ġthin": 7670,
      "Ġlock": 7671,
      "inations": 7672,
      "avel": 7673,
      "Ġtwice": 7674,
      "ĠBoard": 7675,
      "tf": 7676,
      "Ġgeometry": 7677,
      "ependent": 7678,
      "Ġadj": 7679,
      "manager": 7680,
      "Ġvar": 7681,
      "cluding": 7682,
      "Call": 7683,
      "channel": 7684,
      "Ġspectrum": 7685,
      "dest": 7686,
      "Ġque": 7687,
      "ĠMa": 7688,
      "Ġscope": 7689,
      "icious": 7690,
      "Ġagreement": 7691,
      "Ġconcrete": 7692,
      "Understanding": 7693,
      "web": 7694,
      "Ġmedications": 7695,
      "vate": 7696,
      "xx": 7697,
      "Ġbot": 7698,
      "\").": 7699,
      "Ġmuscles": 7700,
      "Ġreactions": 7701,
      "Ġremark": 7702,
      "Ġeffectiveness": 7703,
      "================================": 7704,
      "TE": 7705,
      "Pos": 7706,
      "Ġoptional": 7707,
      "Ġsubjects": 7708,
      "Ġphone": 7709,
      "ĠPub": 7710,
      "bot": 7711,
      "Ġrig": 7712,
      "Ġinvolving": 7713,
      "CP": 7714,
      "Ġconsc": 7715,
      "ishes": 7716,
      "Ġcars": 7717,
      "Ġvertical": 7718,
      ")}": 7719,
      "kl": 7720,
      "Ġanalyze": 7721,
      "ĠImp": 7722,
      "Ġcoff": 7723,
      "connection": 7724,
      "Ġplt": 7725,
      "Ġcoordinates": 7726,
      "Ġped": 7727,
      "bles": 7728,
      "Ġguitar": 7729,
      "ideos": 7730,
      "ĠRegular": 7731,
      "ĠBul": 7732,
      "Ġdut": 7733,
      "Ġmapping": 7734,
      "Ġpreventing": 7735,
      "Ġnan": 7736,
      "ĠOnly": 7737,
      "Ġtick": 7738,
      "ĠEngineering": 7739,
      "umni": 7740,
      "2012": 7741,
      "Ġshot": 7742,
      "Ġrapidly": 7743,
      "Ġtrace": 7744,
      "ĠLike": 7745,
      "dx": 7746,
      "$$,": 7747,
      "ĠGames": 7748,
      "Ġportion": 7749,
      "Ġshif": 7750,
      "brid": 7751,
      "child": 7752,
      "operation": 7753,
      "Ġprotected": 7754,
      "isters": 7755,
      "Ġenhancing": 7756,
      "Ġmodify": 7757,
      "Ġcommands": 7758,
      "2011": 7759,
      "batch": 7760,
      "element": 7761,
      "Ġsurfaces": 7762,
      "Ġinjuries": 7763,
      "Ġgap": 7764,
      "ĠPoint": 7765,
      "Ġenables": 7766,
      "allow": 7767,
      "erves": 7768,
      "ceived": 7769,
      "Ġgun": 7770,
      "ouble": 7771,
      "racy": 7772,
      "Ġresilience": 7773,
      "Am": 7774,
      "Ġhydro": 7775,
      "Ġregional": 7776,
      "tmp": 7777,
      "Ġassets": 7778,
      "Ġowner": 7779,
      "parameters": 7780,
      "iration": 7781,
      "prot": 7782,
      "img": 7783,
      "Ġextent": 7784,
      "cons": 7785,
      "Ġcontainer": 7786,
      "Ġ300": 7787,
      "Ġeggs": 7788,
      "Ġbatch": 7789,
      "ĠBank": 7790,
      "Ġheard": 7791,
      "itud": 7792,
      "Ġattributes": 7793,
      "Ġflight": 7794,
      "oder": 7795,
      "Ġstret": 7796,
      "Ġassigned": 7797,
      "Ġsuggested": 7798,
      "Ġtested": 7799,
      "Ġexplained": 7800,
      "Ð¸": 7801,
      "ĠQt": 7802,
      "Ġ36": 7803,
      "lat": 7804,
      "Ġexpensive": 7805,
      "ĠGeorg": 7806,
      "Ġbridge": 7807,
      "Ġconsumer": 7808,
      "ĠConst": 7809,
      "Ġcarefully": 7810,
      ".\")": 7811,
      "Ġprime": 7812,
      "ĠHenry": 7813,
      "ĠTreat": 7814,
      "Ġdecor": 7815,
      "ĠMoreover": 7816,
      "Ġmechanisms": 7817,
      "Ġborder": 7818,
      "ĠMo": 7819,
      "Ġlung": 7820,
      "Ġbrand": 7821,
      "Ġpartner": 7822,
      "Ġcorpor": 7823,
      "Ġpriorit": 7824,
      "Ġdictionary": 7825,
      "Ġfashion": 7826,
      "icago": 7827,
      "Ġpull": 7828,
      "ĠIns": 7829,
      "Ġsatell": 7830,
      "tic": 7831,
      "Ġcleaning": 7832,
      "Ġaccepted": 7833,
      "Ġmoisture": 7834,
      "Ġrepeated": 7835,
      "ĠBig": 7836,
      "ĠWIT": 7837,
      "Py": 7838,
      "Ġpaths": 7839,
      "Ġdoll": 7840,
      "ĠLib": 7841,
      "Ġhear": 7842,
      "ĠExample": 7843,
      "Ġpromin": 7844,
      "Ġinputs": 7845,
      "Work": 7846,
      "ĠIreland": 7847,
      "Ne": 7848,
      "sample": 7849,
      "indu": 7850,
      "Ġoccurred": 7851,
      "ih": 7852,
      "Ġuniverse": 7853,
      "isk": 7854,
      "inition": 7855,
      "Ġsusp": 7856,
      "ĠMr": 7857,
      "Ġthermal": 7858,
      "SH": 7859,
      "ĠFlorida": 7860,
      "Ġadult": 7861,
      "ĠFOR": 7862,
      "ulating": 7863,
      "Ġproducing": 7864,
      "ĠAlexander": 7865,
      "grade": 7866,
      "apes": 7867,
      "ĠOpt": 7868,
      "hav": 7869,
      "forms": 7870,
      "Ġcache": 7871,
      "Ġepisode": 7872,
      "Stud": 7873,
      "ĠCross": 7874,
      "Ġpresc": 7875,
      "Ġprecise": 7876,
      "Ġscheme": 7877,
      "assertRaises": 7878,
      "Ġrural": 7879,
      "Ġelected": 7880,
      "Ġconstructed": 7881,
      "Ġcapable": 7882,
      "record": 7883,
      "ĠStudies": 7884,
      "uality": 7885,
      "sv": 7886,
      "Ġregression": 7887,
      "Ġstd": 7888,
      "BS": 7889,
      "Ġethical": 7890,
      "Ġ1997": 7891,
      "Ġlose": 7892,
      "ĠBur": 7893,
      "stood": 7894,
      "Ġtells": 7895,
      "wa": 7896,
      "groups": 7897,
      "Fore": 7898,
      "ï¿½ï¿½": 7899,
      "Ġ%(": 7900,
      "ĠMel": 7901,
      "Ġpolar": 7902,
      "that": 7903,
      "Ġcorner": 7904,
      "Ġstrict": 7905,
      "uan": 7906,
      "how": 7907,
      "Ġtrained": 7908,
      "Ġintroduction": 7909,
      "Ġguess": 7910,
      "Ġfunding": 7911,
      "ĠTim": 7912,
      "Ġsubstance": 7913,
      "Ġinstructions": 7914,
      "Ġlogic": 7915,
      "MM": 7916,
      "ĠInit": 7917,
      "Ġproduces": 7918,
      "Ġedges": 7919,
      "Ġconsumers": 7920,
      "']:": 7921,
      "Ġimmediate": 7922,
      "dtype": 7923,
      "Ġagriculture": 7924,
      "Ġkil": 7925,
      "Ã¨": 7926,
      "Ġcategories": 7927,
      "ĠVictor": 7928,
      "Ġbool": 7929,
      "Ġserving": 7930,
      "Ġauthority": 7931,
      "Yes": 7932,
      "Ġagree": 7933,
      "Ġwonder": 7934,
      "Ġmetric": 7935,
      "Ġcatch": 7936,
      "serve": 7937,
      "onia": 7938,
      "Ġpaid": 7939,
      "Ġzone": 7940,
      "Fe": 7941,
      "usr": 7942,
      "Ġdescribes": 7943,
      "Ġtaught": 7944,
      "Ġaddressing": 7945,
      "ĠDen": 7946,
      "SL": 7947,
      "ĠMedical": 7948,
      "BA": 7949,
      "ĠSwed": 7950,
      "rule": 7951,
      "omorph": 7952,
      "Ġ33": 7953,
      "ĠSil": 7954,
      "Ġatoms": 7955,
      "zen": 7956,
      "Ġspeak": 7957,
      "Ġstick": 7958,
      "Ġnaturally": 7959,
      "Ġparse": 7960,
      "Ġoperate": 7961,
      "âĶĢ": 7962,
      "Service": 7963,
      "othe": 7964,
      "unc": 7965,
      "Ġclaims": 7966,
      "Ġahead": 7967,
      "contin": 7968,
      "Ġsections": 7969,
      "Ġadequ": 7970,
      "ĠCast": 7971,
      "site": 7972,
      "TeX": 7973,
      "Ġcommitment": 7974,
      "ĠSuch": 7975,
      "Ac": 7976,
      "Ġwors": 7977,
      "Ġmolecules": 7978,
      "]),": 7979,
      "ocument": 7980,
      "Ġmere": 7981,
      "Ġ<-": 7982,
      "Ġinitially": 7983,
      "Ġreaders": 7984,
      "Ġstorm": 7985,
      "Ġcompat": 7986,
      "roduction": 7987,
      "orrow": 7988,
      "Ġdisk": 7989,
      "Ġaims": 7990,
      "ĠFurthermore": 7991,
      "ĠKar": 7992,
      "Ġstatic": 7993,
      "ĠLanguage": 7994,
      "Ġtum": 7995,
      "Ġbill": 7996,
      "MAT": 7997,
      "Ġtuple": 7998,
      "Although": 7999,
      "Ġboundaries": 8000,
      "RANT": 8001,
      "Ġassistance": 8002,
      "Ġminimal": 8003,
      "Ġfilled": 8004,
      "Ġcoal": 8005,
      "Ġ69": 8006,
      "ĠIndust": 8007,
      "etry": 8008,
      "Ġagreed": 8009,
      "rium": 8010,
      "Ġmanip": 8011,
      "Ġmorning": 8012,
      "ropical": 8013,
      "ova": 8014,
      "handle": 8015,
      "imary": 8016,
      "Ġconfir": 8017,
      "ji": 8018,
      "Ġrepresenting": 8019,
      "Start": 8020,
      "swer": 8021,
      "lets": 8022,
      "Ġbin": 8023,
      "Ġintegrated": 8024,
      "ĠIdent": 8025,
      "door": 8026,
      "Ġreject": 8027,
      "Ġlargely": 8028,
      "Ġpercentage": 8029,
      "Ġdisrupt": 8030,
      "iday": 8031,
      "ĠReview": 8032,
      "Ġrevealed": 8033,
      "Ġvectors": 8034,
      "ĠKeep": 8035,
      "uma": 8036,
      "oston": 8037,
      "Ġpurchase": 8038,
      "Ġallerg": 8039,
      "Ġcultures": 8040,
      "ĠToday": 8041,
      "ĠStudents": 8042,
      "Ġsales": 8043,
      "Ġprison": 8044,
      "ĠTheory": 8045,
      "Run": 8046,
      "ĠInteg": 8047,
      "Ġcircumst": 8048,
      "Ġ49": 8049,
      "Ġrely": 8050,
      "prov": 8051,
      "ĠCode": 8052,
      "itative": 8053,
      "ĠDE": 8054,
      "Ġcentre": 8055,
      "Ġcluster": 8056,
      "miss": 8057,
      "Ġrequests": 8058,
      "wing": 8059,
      "Ġmeat": 8060,
      "Ġhandling": 8061,
      "reme": 8062,
      "ĠColum": 8063,
      "%.": 8064,
      "Ġeigen": 8065,
      "Ġentirely": 8066,
      "Ġplate": 8067,
      "Ġwet": 8068,
      "Ġheaders": 8069,
      "ĠIslam": 8070,
      "Ġaccum": 8071,
      "2020": 8072,
      "atever": 8073,
      "Ġgenerations": 8074,
      "Ġdiscovery": 8075,
      "forcement": 8076,
      "Ġorient": 8077,
      "ĠWild": 8078,
      "Med": 8079,
      "Ġ63": 8080,
      "ĠMot": 8081,
      "empty": 8082,
      "Ġcamera": 8083,
      "utive": 8084,
      "ĠCivil": 8085,
      "ĠSep": 8086,
      "omega": 8087,
      "Ġlessons": 8088,
      "ston": 8089,
      "Ġ54": 8090,
      "Ġturns": 8091,
      "Ġmusical": 8092,
      "Act": 8093,
      "Ġsimulation": 8094,
      "Last": 8095,
      "unte": 8096,
      "km": 8097,
      "Ġnarrow": 8098,
      "Ġobjective": 8099,
      "oxide": 8100,
      "ĠWARRANT": 8101,
      "Ġunion": 8102,
      "ĠFootball": 8103,
      "Ġneighbor": 8104,
      "Ġcompounds": 8105,
      "ĠSecurity": 8106,
      "Ġgovernments": 8107,
      "ĠRecords": 8108,
      "har": 8109,
      "ĠNews": 8110,
      "headers": 8111,
      "Ġphr": 8112,
      "Ġleague": 8113,
      "RI": 8114,
      "ĠColor": 8115,
      "Ġcomments": 8116,
      "member": 8117,
      "Ġvac": 8118,
      "Red": 8119,
      "Ġnavigate": 8120,
      "Ġion": 8121,
      "Ġfelt": 8122,
      "Ġsegment": 8123,
      "rolog": 8124,
      "ĠKnow": 8125,
      "Ġmechanical": 8126,
      "icode": 8127,
      "Ġscene": 8128,
      "Ġcryst": 8129,
      "ĠChapter": 8130,
      "Ġmodified": 8131,
      "cho": 8132,
      "ĠPlay": 8133,
      "ascular": 8134,
      "ĠGa": 8135,
      "Ġfertil": 8136,
      "Ġreson": 8137,
      "ingly": 8138,
      "Cal": 8139,
      "Ġthorough": 8140,
      "ĠHaw": 8141,
      "Ġignore": 8142,
      "Ġafford": 8143,
      "Ġdecay": 8144,
      "DP": 8145,
      "^\\": 8146,
      "Ġlaunched": 8147,
      "after": 8148,
      "Ġangles": 8149,
      "Ġminimize": 8150,
      "Ġinsurance": 8151,
      "UE": 8152,
      "Ġhabitat": 8153,
      "Ġsizes": 8154,
      "Ġcardi": 8155,
      "Ġharvest": 8156,
      "ln": 8157,
      "ĠScot": 8158,
      "Ġhash": 8159,
      "Ġthreats": 8160,
      "Ġfre": 8161,
      "ĠCommittee": 8162,
      "Ġ'-": 8163,
      "Ġdelete": 8164,
      "ĠLin": 8165,
      "Ġdeli": 8166,
      "Ġschedule": 8167,
      "Ġ61": 8168,
      "ustain": 8169,
      "ĠLO": 8170,
      "Ġfro": 8171,
      "Ġcommunicate": 8172,
      "iro": 8173,
      "Ġ1995": 8174,
      "erior": 8175,
      "ĠSoviet": 8176,
      "height": 8177,
      "Ġkit": 8178,
      "Message": 8179,
      "oves": 8180,
      "ĠSea": 8181,
      "Ġswim": 8182,
      "tab": 8183,
      "Ġtab": 8184,
      "ĠHistoric": 8185,
      "Ġestimates": 8186,
      "onymous": 8187,
      "afe": 8188,
      "Event": 8189,
      "Source": 8190,
      "ĨĴ": 8191,
      "Ġjustice": 8192,
      "ropy": 8193,
      "Ġnom": 8194,
      "Ġlaunch": 8195,
      "Ġscan": 8196,
      "ĠExt": 8197,
      "%%": 8198,
      "Element": 8199,
      "Ġstructural": 8200,
      "Ġstem": 8201,
      "Ġexploration": 8202,
      "Ġrational": 8203,
      "Ġsymbols": 8204,
      "ĠRE": 8205,
      "Ġfilters": 8206,
      "Most": 8207,
      "Ġfav": 8208,
      "Ġroof": 8209,
      "ĠMiddle": 8210,
      "comfort": 8211,
      "erman": 8212,
      "Ġapart": 8213,
      "Create": 8214,
      "Äģ": 8215,
      "ione": 8216,
      "rating": 8217,
      "FO": 8218,
      "Further": 8219,
      "course": 8220,
      "Ġcolour": 8221,
      "Ġhorse": 8222,
      "Ġtro": 8223,
      "Ġshapes": 8224,
      "Ġends": 8225,
      "vals": 8226,
      "AGE": 8227,
      "}$,": 8228,
      "ĠEffect": 8229,
      "Ġcoffee": 8230,
      "ĠLibrary": 8231,
      "neg": 8232,
      "supp": 8233,
      "ĠDifferent": 8234,
      "Ġsentence": 8235,
      "Ġimplications": 8236,
      "public": 8237,
      "Ġgar": 8238,
      "Ġstudying": 8239,
      "ĠComple": 8240,
      "lights": 8241,
      "Ġleaf": 8242,
      "aped": 8243,
      "DR": 8244,
      "offset": 8245,
      "Ġdelivery": 8246,
      "Ġhouses": 8247,
      "stronom": 8248,
      "fficients": 8249,
      "ĠName": 8250,
      "Ġgenes": 8251,
      "Equ": 8252,
      "ady": 8253,
      "nu": 8254,
      "Ġextend": 8255,
      "ĠMinister": 8256,
      "Bo": 8257,
      "ribed": 8258,
      "Ġengagement": 8259,
      "agnetic": 8260,
      "Ġdiscrim": 8261,
      "Ġsurvival": 8262,
      "duction": 8263,
      "ĠBritain": 8264,
      "full": 8265,
      "ĠContin": 8266,
      "Ġaccompl": 8267,
      "ĠCall": 8268,
      "temp": 8269,
      "Ġadministration": 8270,
      "Ġpossibly": 8271,
      "ributions": 8272,
      "holders": 8273,
      "Ġtoler": 8274,
      "Ġ1994": 8275,
      "Ġhence": 8276,
      "ĠPacific": 8277,
      "Ġbroken": 8278,
      "Ġenum": 8279,
      "etal": 8280,
      "Ġweights": 8281,
      "Ġment": 8282,
      "pdf": 8283,
      "ĠVirginia": 8284,
      "ĠSym": 8285,
      "ĠMartin": 8286,
      "ĠOffice": 8287,
      "ĠSaint": 8288,
      "ĠEmpire": 8289,
      "Ġtables": 8290,
      "Ġcircul": 8291,
      "2019": 8292,
      "Ġexperimental": 8293,
      "zero": 8294,
      "ĠJoseph": 8295,
      "Ġ_(\"": 8296,
      "wan": 8297,
      "ĠTre": 8298,
      "Ġdrinking": 8299,
      "Ġintervention": 8300,
      "ĠMill": 8301,
      "Ġquantity": 8302,
      "Ġintake": 8303,
      "Ġ48": 8304,
      "Ġban": 8305,
      "Ġenabling": 8306,
      "Ġprivacy": 8307,
      "Ġstruggle": 8308,
      "ogether": 8309,
      "Ġuniversity": 8310,
      "Ġtheme": 8311,
      "Ġunless": 8312,
      "Ġended": 8313,
      "Are": 8314,
      "kes": 8315,
      "Ġdur": 8316,
      "ĠBrown": 8317,
      "ĠNa": 8318,
      "ili": 8319,
      "Ġ1992": 8320,
      "rames": 8321,
      "Ġmassive": 8322,
      "ĠĠĠĠĠĠĠĠĠĠĠĠĠĠĠĠĠĠĠĠĠĠĠĠĠĠĠĠĠĠ": 8323,
      "Ġwinning": 8324,
      "Ġstuff": 8325,
      "=%": 8326,
      "->": 8327,
      "Ġsolving": 8328,
      "Ġtalking": 8329,
      "2007": 8330,
      "Ġenth": 8331,
      "ĠNorthern": 8332,
      "Mem": 8333,
      "eries": 8334,
      "Ġsport": 8335,
      "iana": 8336,
      "Ġinteractive": 8337,
      "Ġkinds": 8338,
      "Integer": 8339,
      "Client": 8340,
      "register": 8341,
      "Ġdemonstrate": 8342,
      "Ġwriters": 8343,
      "NS": 8344,
      "estions": 8345,
      "CB": 8346,
      "ĠServ": 8347,
      "ĠLatin": 8348,
      "Ġpandemic": 8349,
      "Supp": 8350,
      "ĠSpecial": 8351,
      "aria": 8352,
      "Ġsubset": 8353,
      "claim": 8354,
      "Ġefficiently": 8355,
      "Ġstatements": 8356,
      ".')": 8357,
      "Ġthanks": 8358,
      "Ġdigest": 8359,
      "oven": 8360,
      "ĠEr": 8361,
      "Ġabuse": 8362,
      "erals": 8363,
      "ĠPop": 8364,
      "ndrome": 8365,
      "Ġrenewable": 8366,
      "Ġarbit": 8367,
      "Ġfabric": 8368,
      "Ġdialog": 8369,
      "heast": 8370,
      "leq": 8371,
      "ĠLook": 8372,
      "Ġenv": 8373,
      "Ġprefix": 8374,
      ",'": 8375,
      "\"])": 8376,
      "Ġapparent": 8377,
      "Ġfoss": 8378,
      "ĠSupport": 8379,
      "Ġcash": 8380,
      "Ġmanual": 8381,
      "Ġdrivers": 8382,
      "Ġcomposed": 8383,
      "phone": 8384,
      "Ġveter": 8385,
      "Ġinstances": 8386,
      "herent": 8387,
      "ĠSciences": 8388,
      "Ġelectrons": 8389,
      "ĠDoes": 8390,
      "Ġcontributing": 8391,
      "Ġordered": 8392,
      "people": 8393,
      "Ġcovers": 8394,
      "Ġà¤": 8395,
      "js": 8396,
      "chen": 8397,
      "Ġcloser": 8398,
      "Ġwildlife": 8399,
      "Ġacknow": 8400,
      "ĠRail": 8401,
      "Ġcommunic": 8402,
      "Ġidentifying": 8403,
      "Ġcart": 8404,
      "ĠHand": 8405,
      "ĠRegister": 8406,
      "Ġshel": 8407,
      "ching": 8408,
      "Ġbg": 8409,
      "Ġsucceed": 8410,
      "ko": 8411,
      "ĠCur": 8412,
      "Ġstrings": 8413,
      "asy": 8414,
      "ĠAuthor": 8415,
      "Ġtea": 8416,
      "BU": 8417,
      "ĠWood": 8418,
      "ylvan": 8419,
      "ilib": 8420,
      "SU": 8421,
      "ĠPlease": 8422,
      "Ġpossibility": 8423,
      "Ġimplied": 8424,
      "Ġvan": 8425,
      "Ġmedication": 8426,
      "orem": 8427,
      "fficial": 8428,
      "Ġproteins": 8429,
      "Ġmuseum": 8430,
      "Ġimper": 8431,
      "ĠChicago": 8432,
      "_\\": 8433,
      "Ġ42": 8434,
      "Ġcertainly": 8435,
      "Ġtoxic": 8436,
      "inson": 8437,
      "Ġmetadata": 8438,
      "IA": 8439,
      "Ġauto": 8440,
      "ĠTimes": 8441,
      "Ġexploring": 8442,
      "orous": 8443,
      "ĠUt": 8444,
      "ĠOrder": 8445,
      "Number": 8446,
      "Ġclassification": 8447,
      "quare": 8448,
      "ĠAccess": 8449,
      "PRO": 8450,
      "asters": 8451,
      "ĠFort": 8452,
      "Ġbiod": 8453,
      "Ġtradition": 8454,
      "Ġregister": 8455,
      "Ġintric": 8456,
      "Ġrotation": 8457,
      "Ġtranslation": 8458,
      "ultane": 8459,
      "Ġnearby": 8460,
      "ĠLos": 8461,
      "oting": 8462,
      "Ġgod": 8463,
      "Ġimplementing": 8464,
      "ĠSection": 8465,
      "ĠBC": 8466,
      "Ġplus": 8467,
      "Ġdust": 8468,
      "Ġlists": 8469,
      "Ġpanel": 8470,
      "outs": 8471,
      "Ent": 8472,
      "clear": 8473,
      "Ġcats": 8474,
      "Ġneural": 8475,
      "ĠUk": 8476,
      "Ġmarine": 8477,
      "layer": 8478,
      "Ġamb": 8479,
      "Ġrepair": 8480,
      "Ġwindows": 8481,
      "Vari": 8482,
      "idae": 8483,
      "ĠSimilar": 8484,
      "ĠWal": 8485,
      "Ġ],": 8486,
      "Ġsupplement": 8487,
      "ulty": 8488,
      "Ġtherap": 8489,
      "Ġaqu": 8490,
      "zed": 8491,
      "Ġ###": 8492,
      "Ġdiss": 8493,
      "found": 8494,
      "Ġreader": 8495,
      "ĠBusiness": 8496,
      "iano": 8497,
      "ittle": 8498,
      "Ġwitness": 8499,
      "ello": 8500,
      "doi": 8501,
      "Ġprofound": 8502,
      "SR": 8503,
      "controll": 8504,
      "Ġdifficulty": 8505,
      "ORT": 8506,
      "button": 8507,
      "Ġbiological": 8508,
      "----------------------------------------------------------------": 8509,
      "rho": 8510,
      "****************": 8511,
      "Ġsett": 8512,
      "Ġcurriculum": 8513,
      "fail": 8514,
      "Rel": 8515,
      "Ġtank": 8516,
      "Ġrub": 8517,
      "Ġblank": 8518,
      "ĠQuestion": 8519,
      "Ġprevention": 8520,
      "ĠDespite": 8521,
      "opic": 8522,
      "uing": 8523,
      "Ġwhereas": 8524,
      "ĠConference": 8525,
      "iability": 8526,
      "Figure": 8527,
      "Ġliver": 8528,
      "Ġcontributions": 8529,
      "Ġinstruction": 8530,
      "asketball": 8531,
      "Use": 8532,
      "ĠPak": 8533,
      "Ġdecide": 8534,
      "Ġreward": 8535,
      "exit": 8536,
      "Ġcoverage": 8537,
      "ĠHT": 8538,
      "Ġproductivity": 8539,
      "aked": 8540,
      "Ġinterpre": 8541,
      "install": 8542,
      "Ġathlet": 8543,
      "OK": 8544,
      "gamma": 8545,
      "Su": 8546,
      "ĠLight": 8547,
      "gex": 8548,
      "Ġimpossible": 8549,
      "Ġsnow": 8550,
      "ipher": 8551,
      "Ġentered": 8552,
      "mann": 8553,
      "Ġshad": 8554,
      "Ġstatistical": 8555,
      "Ġdepict": 8556,
      "Ġoperators": 8557,
      "forward": 8558,
      "Ġhappy": 8559,
      "Ġcreativity": 8560,
      "Ġmand": 8561,
      "Ġdrawn": 8562,
      "ĠÃĹ": 8563,
      "apshot": 8564,
      "eval": 8565,
      "such": 8566,
      "rus": 8567,
      "Ġchannels": 8568,
      "exception": 8569,
      "lishing": 8570,
      "Ġobservation": 8571,
      "Ġgreatly": 8572,
      "Ġdent": 8573,
      "Ġfrequent": 8574,
      "oral": 8575,
      "ĠBack": 8576,
      "Ġquarter": 8577,
      "Fig": 8578,
      "ĠSouthern": 8579,
      "hips": 8580,
      "Ġfacts": 8581,
      "Ġcomputers": 8582,
      "Ġpanels": 8583,
      "ĠTake": 8584,
      "Ġbytes": 8585,
      "Ġnucle": 8586,
      "Ġweap": 8587,
      "Ġdiscipl": 8588,
      "'][": 8589,
      "Ġintroduce": 8590,
      "chers": 8591,
      "Ġinverse": 8592,
      "ylvania": 8593,
      "yan": 8594,
      "DIR": 8595,
      "ipt": 8596,
      "Ġcomfortable": 8597,
      "Mon": 8598,
      "Ġcoupl": 8599,
      "dated": 8600,
      "Ġtruly": 8601,
      "ĠIrish": 8602,
      "Ġfunds": 8603,
      "atre": 8604,
      "Ġsick": 8605,
      "Ġintensity": 8606,
      "sts": 8607,
      "Ġshop": 8608,
      "Ġedition": 8609,
      "Ġattached": 8610,
      "Ġgut": 8611,
      "enter": 8612,
      "ĠRam": 8613,
      "Ġexplo": 8614,
      "Ġauthorities": 8615,
      "ĠJac": 8616,
      "ifiers": 8617,
      "ugby": 8618,
      "Ġexplains": 8619,
      "Ġgained": 8620,
      "wd": 8621,
      "Ġwants": 8622,
      "erving": 8623,
      "Ġconscious": 8624,
      "Ġaccident": 8625,
      "Ġdebug": 8626,
      "Ġvaccine": 8627,
      "dfrac": 8628,
      "Ġawarded": 8629,
      "GL": 8630,
      "Ġchoosing": 8631,
      "Ġ\"\"": 8632,
      "`.": 8633,
      "Ġfaced": 8634,
      "Ġinstant": 8635,
      "sort": 8636,
      "ãĢ": 8637,
      "ĠChall": 8638,
      "Ġarmy": 8639,
      "Car": 8640,
      "named": 8641,
      "Ġfocuses": 8642,
      "Ġ\"/": 8643,
      "Ġcompact": 8644,
      "Ġsod": 8645,
      "apse": 8646,
      "Ġmeters": 8647,
      "ĠMuslim": 8648,
      "Ġabilities": 8649,
      "construct": 8650,
      "Ġstake": 8651,
      "Ġ1950": 8652,
      "cred": 8653,
      "MB": 8654,
      "ĠSO": 8655,
      "initely": 8656,
      "fol": 8657,
      "aniel": 8658,
      "ĠIII": 8659,
      "igration": 8660,
      "Ġthr": 8661,
      "Ġinfluenced": 8662,
      "ĠTri": 8663,
      "Ġnine": 8664,
      "ikip": 8665,
      "Ġorganized": 8666,
      "izers": 8667,
      "ĠBoston": 8668,
      "ĠFunction": 8669,
      "ĠProfessor": 8670,
      "Ġmood": 8671,
      "anches": 8672,
      "Ġcrim": 8673,
      "chem": 8674,
      "thread": 8675,
      "widget": 8676,
      "labels": 8677,
      "ĠStar": 8678,
      "Ġdepart": 8679,
      "Tem": 8680,
      "Ġactor": 8681,
      "Ġ43": 8682,
      "profile": 8683,
      "Ġtargets": 8684,
      "login": 8685,
      "bound": 8686,
      "ĠLevel": 8687,
      "Map": 8688,
      "ĠDown": 8689,
      "cket": 8690,
      "Ġmoves": 8691,
      "Ġproviders": 8692,
      "Ġseasons": 8693,
      "INE": 8694,
      "Ġwestern": 8695,
      ")\"": 8696,
      "Ġgall": 8697,
      "Ġcircumstances": 8698,
      "ĠBlue": 8699,
      "queue": 8700,
      "clean": 8701,
      "arios": 8702,
      "Ġpsychological": 8703,
      "Ġpursu": 8704,
      "itan": 8705,
      "Ġmatrices": 8706,
      "Ġattend": 8707,
      "power": 8708,
      "Ġ400": 8709,
      "Ġabstract": 8710,
      "Ġparticipate": 8711,
      "GET": 8712,
      "sid": 8713,
      "Ġbrown": 8714,
      "Ġconventional": 8715,
      "Ġwaters": 8716,
      "Ġpossess": 8717,
      "Ġcrop": 8718,
      "Ġexpressions": 8719,
      "Ġadopted": 8720,
      "xford": 8721,
      "Ġip": 8722,
      "Ġunable": 8723,
      "Ġdomestic": 8724,
      "ĠHu": 8725,
      "orrect": 8726,
      "Ġpropag": 8727,
      "Ġpig": 8728,
      "oir": 8729,
      "Ġadds": 8730,
      "Qt": 8731,
      "Ġthreshold": 8732,
      "Ġ34": 8733,
      "Ġconcerned": 8734,
      "2006": 8735,
      "Ġdependent": 8736,
      "Ġ1993": 8737,
      "Handler": 8738,
      "Ġpix": 8739,
      "Button": 8740,
      "Ġretrie": 8741,
      "ĠDirector": 8742,
      "ABLE": 8743,
      "Sm": 8744,
      "ĠOrig": 8745,
      "________________": 8746,
      "Ġcontemporary": 8747,
      "Ġpassing": 8748,
      "IES": 8749,
      "HD": 8750,
      "Ġships": 8751,
      "Ġoptimization": 8752,
      "Ġsenior": 8753,
      "Ġ1991": 8754,
      "onential": 8755,
      "Ġsessions": 8756,
      "Ġfeatured": 8757,
      "Ġhardware": 8758,
      "Ġverbose": 8759,
      "ĠKh": 8760,
      "norm": 8761,
      "Ġmarkets": 8762,
      "ĠNature": 8763,
      "score": 8764,
      "Ġoxid": 8765,
      "Ġspecialized": 8766,
      "Ġupdates": 8767,
      "ĠAff": 8768,
      "rene": 8769,
      "Ġdiameter": 8770,
      "font": 8771,
      "ĠSpain": 8772,
      "ĠYoung": 8773,
      "Ġemployed": 8774,
      "Ġaudio": 8775,
      "Ġcharacterized": 8776,
      "ĠMichigan": 8777,
      "vit": 8778,
      "uten": 8779,
      "Ġmillions": 8780,
      "Ġtechnological": 8781,
      "tags": 8782,
      "Ġhousing": 8783,
      "LS": 8784,
      "Ġduration": 8785,
      "LA": 8786,
      "Your": 8787,
      "ĠFinally": 8788,
      "End": 8789,
      "Ġapplying": 8790,
      "click": 8791,
      "ĠJud": 8792,
      "Ġcompr": 8793,
      "Question": 8794,
      "Ġturb": 8795,
      "Open": 8796,
      ",,": 8797,
      "nsylvania": 8798,
      "sed": 8799,
      "Code": 8800,
      "ĠIT": 8801,
      "ĠRock": 8802,
      "Ġexcessive": 8803,
      "Ġbatteries": 8804,
      "Ġunderstood": 8805,
      "Ġcommission": 8806,
      "vi": 8807,
      "Ġcandidate": 8808,
      "encing": 8809,
      "pg": 8810,
      "Ġcodes": 8811,
      "Ġscored": 8812,
      "control": 8813,
      "feed": 8814,
      "Ġnewsp": 8815,
      "Ġcrops": 8816,
      "Ġsed": 8817,
      "Ġflexibility": 8818,
      "ipality": 8819,
      "Ġfostering": 8820,
      "Ġpowers": 8821,
      "leted": 8822,
      "fulness": 8823,
      "dden": 8824,
      "Ġconj": 8825,
      "uted": 8826,
      "Ġabund": 8827,
      "ryption": 8828,
      "sql": 8829,
      "OP": 8830,
      "Ġmining": 8831,
      "Ġwra": 8832,
      "ĠPass": 8833,
      "Min": 8834,
      "Ġreligion": 8835,
      "00000000": 8836,
      "mes": 8837,
      "ĠMil": 8838,
      "Ġpapers": 8839,
      "hyth": 8840,
      "Ġ\"\\": 8841,
      "Ġvote": 8842,
      "Ġexpertise": 8843,
      "Ġgrown": 8844,
      "Ġheritage": 8845,
      "ĠPDF": 8846,
      "ellect": 8847,
      "mond": 8848,
      "ells": 8849,
      "Ġcontrols": 8850,
      "Ð½": 8851,
      "Oper": 8852,
      "ĠEnvironmental": 8853,
      "ĠArts": 8854,
      "Ġdoor": 8855,
      "çļ": 8856,
      "Ġcalculation": 8857,
      "Ġmaybe": 8858,
      "Ġvideos": 8859,
      "Ġcontained": 8860,
      "Ġcards": 8861,
      "kg": 8862,
      "ASA": 8863,
      "Ġgirls": 8864,
      "Ġconverted": 8865,
      "ĠÂ»": 8866,
      "ikipedia": 8867,
      "Ġsweet": 8868,
      "roat": 8869,
      "ĠMah": 8870,
      "ĠHill": 8871,
      "Ġinterf": 8872,
      "icensed": 8873,
      "XXXX": 8874,
      "}+": 8875,
      "role": 8876,
      "inking": 8877,
      "Ġfocusing": 8878,
      "Ġpregnancy": 8879,
      "home": 8880,
      "Ġgreatest": 8881,
      "Ġmountain": 8882,
      "~~~~": 8883,
      "Ġindeed": 8884,
      "plicate": 8885,
      "overty": 8886,
      "Ġinequ": 8887,
      "Ġexport": 8888,
      "ĠTeam": 8889,
      "Ġheating": 8890,
      "Ġflows": 8891,
      "ĠThanks": 8892,
      "oving": 8893,
      "Ġserial": 8894,
      "ATA": 8895,
      "zech": 8896,
      "Ġnormally": 8897,
      "Ġchief": 8898,
      "ĠGuide": 8899,
      "Ġshoot": 8900,
      "success": 8901,
      "derr": 8902,
      "Ġinitiatives": 8903,
      "Ġcompound": 8904,
      "ĠKn": 8905,
      "Ġflavor": 8906,
      "rants": 8907,
      "Ġsensors": 8908,
      "çļĦ": 8909,
      "Ġtags": 8910,
      "Ġ46": 8911,
      "changed": 8912,
      "Ġrid": 8913,
      "[:,": 8914,
      "Input": 8915,
      "Ġinterview": 8916,
      "Ġgalax": 8917,
      "Using": 8918,
      "Ġjump": 8919,
      "break": 8920,
      "sole": 8921,
      "Ġbreathing": 8922,
      "try": 8923,
      "iger": 8924,
      "idential": 8925,
      "ĠDynam": 8926,
      "Ġwish": 8927,
      "arse": 8928,
      "Ġdepos": 8929,
      "lications": 8930,
      "coin": 8931,
      "ĠReal": 8932,
      "Ġexplanation": 8933,
      "Ġhappened": 8934,
      "Ġtang": 8935,
      "ĠGard": 8936,
      "ĠNavy": 8937,
      ":]": 8938,
      "ierarch": 8939,
      "John": 8940,
      "ĠConnect": 8941,
      "Ġreprodu": 8942,
      "charge": 8943,
      "ĠFederal": 8944,
      "Ġdefic": 8945,
      "cert": 8946,
      "Gl": 8947,
      "bing": 8948,
      "hematic": 8949,
      "Notes": 8950,
      "Ġnur": 8951,
      "Ġadvancements": 8952,
      "LL": 8953,
      "ĠExamples": 8954,
      "gi": 8955,
      "ÑĤ": 8956,
      "Ġspeaking": 8957,
      "Ġcriteria": 8958,
      "Ġhole": 8959,
      "osh": 8960,
      "encode": 8961,
      "Ġsorted": 8962,
      "stats": 8963,
      "scope": 8964,
      "Ġsudden": 8965,
      "Ġreq": 8966,
      "master": 8967,
      "Status": 8968,
      "Ġlesson": 8969,
      "=-": 8970,
      "Mus": 8971,
      "tan": 8972,
      "Ġorg": 8973,
      "Ġindependence": 8974,
      "Ġcontents": 8975,
      "Ã±": 8976,
      "chron": 8977,
      "Ġescape": 8978,
      "ĠMu": 8979,
      "Dec": 8980,
      "Dev": 8981,
      "fast": 8982,
      "Ġcalling": 8983,
      "ĠQuestions": 8984,
      "pay": 8985,
      "Ġnations": 8986,
      "Ġ):": 8987,
      "everal": 8988,
      "azz": 8989,
      "Ġbias": 8990,
      "SON": 8991,
      "Ġdecline": 8992,
      "ASE": 8993,
      "Ġtight": 8994,
      "Ġperforming": 8995,
      "Ġingredients": 8996,
      "person": 8997,
      "Ġsubstances": 8998,
      "report": 8999,
      "Ġinstallation": 9000,
      "Ġ150": 9001,
      "stat": 9002,
      "driver": 9003,
      "ALL": 9004,
      "âĶĢâĶĢ": 9005,
      "Instance": 9006,
      "Ġhealing": 9007,
      "Ġmolecular": 9008,
      "TYPE": 9009,
      "apped": 9010,
      "Ġalumni": 9011,
      "Ġaggreg": 9012,
      "fix": 9013,
      "Ġapplicable": 9014,
      "Ġfinish": 9015,
      "ÑĢ": 9016,
      "Ġlect": 9017,
      "Ġdevelopers": 9018,
      "Ġalter": 9019,
      "Ġacids": 9020,
      "Ġeveryday": 9021,
      "ĠValley": 9022,
      "Ġpermanent": 9023,
      "%(": 9024,
      "achment": 9025,
      "setup": 9026,
      "ĠMen": 9027,
      "Ġprocessed": 9028,
      "Ã§": 9029,
      "uses": 9030,
      "ĠPers": 9031,
      "Ġshut": 9032,
      "Ġstyles": 9033,
      "Ġpreparation": 9034,
      "Ã¢": 9035,
      "Ġclust": 9036,
      "Ġprinting": 9037,
      "ĠDO": 9038,
      "ĠRights": 9039,
      "ĠCommunity": 9040,
      "Ġorbit": 9041,
      "Ġrelief": 9042,
      "Ġderivative": 9043,
      "pread": 9044,
[...]
